{
  "version": "1.0",
  "truncation": null,
  "padding": null,
  "added_tokens": [
    {
      "id": 0,
      "content": "[UNK]",
      "single_word": false,
      "lstrip": false,
      "rstrip": false,
      "normalized": false,
      "special": true
    },
    {
      "id": 1,
      "content": "[CLS]",
      "single_word": false,
      "lstrip": false,
      "rstrip": false,
      "normalized": false,
      "special": true
    },
    {
      "id": 2,
      "content": "[SEP]",
      "single_word": false,
      "lstrip": false,
      "rstrip": false,
      "normalized": false,
      "special": true
    },
    {
      "id": 3,
      "content": "[PAD]",
      "single_word": false,
      "lstrip": false,
      "rstrip": false,
      "normalized": false,
      "special": true
    },
    {
      "id": 4,
      "content": "[MASK]",
      "single_word": false,
      "lstrip": false,
      "rstrip": false,
      "normalized": false,
      "special": true
    }
  ],
  "normalizer": null,
  "pre_tokenizer": {
    "type": "Whitespace"
  },
  "post_processor": null,
  "decoder": null,
  "model": {
    "type": "BPE",
    "dropout": null,
    "unk_token": "[UNK]",
    "continuing_subword_prefix": null,
    "end_of_word_suffix": null,
    "fuse_unk": false,
    "vocab": {
      "[UNK]": 0,
      "[CLS]": 1,
      "[SEP]": 2,
      "[PAD]": 3,
      "[MASK]": 4,
      "!": 5,
      "\"": 6,
      "#": 7,
      "$": 8,
      "%": 9,
      "&": 10,
      "'": 11,
      "(": 12,
      ")": 13,
      "*": 14,
      "+": 15,
      ",": 16,
      "-": 17,
      ".": 18,
      "/": 19,
      "0": 20,
      "1": 21,
      "2": 22,
      "3": 23,
      "4": 24,
      "5": 25,
      "6": 26,
      "7": 27,
      "8": 28,
      "9": 29,
      ":": 30,
      ";": 31,
      "<": 32,
      "=": 33,
      ">": 34,
      "?": 35,
      "@": 36,
      "A": 37,
      "B": 38,
      "C": 39,
      "D": 40,
      "E": 41,
      "F": 42,
      "G": 43,
      "H": 44,
      "I": 45,
      "J": 46,
      "K": 47,
      "L": 48,
      "M": 49,
      "N": 50,
      "O": 51,
      "P": 52,
      "Q": 53,
      "R": 54,
      "S": 55,
      "T": 56,
      "U": 57,
      "V": 58,
      "W": 59,
      "X": 60,
      "Y": 61,
      "Z": 62,
      "[": 63,
      "\\": 64,
      "]": 65,
      "^": 66,
      "_": 67,
      "a": 68,
      "b": 69,
      "c": 70,
      "d": 71,
      "e": 72,
      "f": 73,
      "g": 74,
      "h": 75,
      "i": 76,
      "j": 77,
      "k": 78,
      "l": 79,
      "m": 80,
      "n": 81,
      "o": 82,
      "p": 83,
      "q": 84,
      "r": 85,
      "s": 86,
      "t": 87,
      "u": 88,
      "v": 89,
      "w": 90,
      "x": 91,
      "y": 92,
      "z": 93,
      "{": 94,
      "|": 95,
      "}": 96,
      "~": 97,
      "¥": 98,
      "«": 99,
      "²": 100,
      "»": 101,
      "Ü": 102,
      "ß": 103,
      "ä": 104,
      "ö": 105,
      "ü": 106,
      "ΐ": 107,
      "Α": 108,
      "Β": 109,
      "Γ": 110,
      "Δ": 111,
      "Ε": 112,
      "Η": 113,
      "Θ": 114,
      "Ι": 115,
      "Κ": 116,
      "Λ": 117,
      "Μ": 118,
      "Ο": 119,
      "Π": 120,
      "Ρ": 121,
      "Σ": 122,
      "Τ": 123,
      "Χ": 124,
      "Ψ": 125,
      "Ω": 126,
      "ά": 127,
      "έ": 128,
      "ή": 129,
      "ί": 130,
      "α": 131,
      "β": 132,
      "γ": 133,
      "δ": 134,
      "ε": 135,
      "ζ": 136,
      "η": 137,
      "θ": 138,
      "ι": 139,
      "κ": 140,
      "λ": 141,
      "μ": 142,
      "ν": 143,
      "ξ": 144,
      "ο": 145,
      "π": 146,
      "ρ": 147,
      "ς": 148,
      "σ": 149,
      "τ": 150,
      "υ": 151,
      "φ": 152,
      "χ": 153,
      "ψ": 154,
      "ω": 155,
      "ϊ": 156,
      "ό": 157,
      "ύ": 158,
      "ώ": 159,
      "Б": 160,
      "В": 161,
      "Г": 162,
      "Д": 163,
      "К": 164,
      "Л": 165,
      "Н": 166,
      "С": 167,
      "Т": 168,
      "Х": 169,
      "Ц": 170,
      "Ч": 171,
      "а": 172,
      "б": 173,
      "в": 174,
      "г": 175,
      "д": 176,
      "е": 177,
      "ж": 178,
      "з": 179,
      "и": 180,
      "й": 181,
      "к": 182,
      "л": 183,
      "м": 184,
      "н": 185,
      "о": 186,
      "п": 187,
      "р": 188,
      "с": 189,
      "т": 190,
      "у": 191,
      "ф": 192,
      "х": 193,
      "ц": 194,
      "ч": 195,
      "ш": 196,
      "щ": 197,
      "ы": 198,
      "ь": 199,
      "э": 200,
      "ю": 201,
      "я": 202,
      "ё": 203,
      "ị": 204,
      "Ọ": 205,
      "ọ": 206,
      "ụ": 207,
      "–": 208,
      "—": 209,
      "’": 210,
      "“": 211,
      "”": 212,
      "…": 213,
      "※": 214,
      "≡": 215,
      "⋆": 216,
      "◎": 217,
      "、": 218,
      "。": 219,
      "々": 220,
      "「": 221,
      "」": 222,
      "『": 223,
      "』": 224,
      "あ": 225,
      "い": 226,
      "え": 227,
      "お": 228,
      "か": 229,
      "が": 230,
      "き": 231,
      "く": 232,
      "け": 233,
      "こ": 234,
      "ご": 235,
      "さ": 236,
      "ざ": 237,
      "し": 238,
      "す": 239,
      "せ": 240,
      "そ": 241,
      "た": 242,
      "だ": 243,
      "ち": 244,
      "っ": 245,
      "つ": 246,
      "て": 247,
      "で": 248,
      "と": 249,
      "ど": 250,
      "な": 251,
      "に": 252,
      "ね": 253,
      "の": 254,
      "は": 255,
      "ば": 256,
      "へ": 257,
      "ほ": 258,
      "ま": 259,
      "み": 260,
      "む": 261,
      "も": 262,
      "ゃ": 263,
      "や": 264,
      "よ": 265,
      "ら": 266,
      "り": 267,
      "る": 268,
      "れ": 269,
      "ろ": 270,
      "わ": 271,
      "を": 272,
      "ん": 273,
      "ア": 274,
      "ィ": 275,
      "イ": 276,
      "ウ": 277,
      "ェ": 278,
      "エ": 279,
      "カ": 280,
      "ギ": 281,
      "ク": 282,
      "グ": 283,
      "ケ": 284,
      "コ": 285,
      "ゴ": 286,
      "サ": 287,
      "シ": 288,
      "ス": 289,
      "セ": 290,
      "タ": 291,
      "チ": 292,
      "ッ": 293,
      "ツ": 294,
      "テ": 295,
      "ト": 296,
      "ノ": 297,
      "パ": 298,
      "フ": 299,
      "プ": 300,
      "マ": 301,
      "メ": 302,
      "ュ": 303,
      "ョ": 304,
      "ヨ": 305,
      "ラ": 306,
      "リ": 307,
      "ル": 308,
      "レ": 309,
      "ロ": 310,
      "ン": 311,
      "・": 312,
      "ー": 313,
      "一": 314,
      "七": 315,
      "三": 316,
      "下": 317,
      "世": 318,
      "主": 319,
      "事": 320,
      "五": 321,
      "人": 322,
      "代": 323,
      "仮": 324,
      "作": 325,
      "修": 326,
      "兄": 327,
      "先": 328,
      "全": 329,
      "円": 330,
      "写": 331,
      "出": 332,
      "分": 333,
      "初": 334,
      "別": 335,
      "券": 336,
      "削": 337,
      "前": 338,
      "区": 339,
      "博": 340,
      "友": 341,
      "取": 342,
      "古": 343,
      "可": 344,
      "号": 345,
      "合": 346,
      "同": 347,
      "名": 348,
      "含": 349,
      "品": 350,
      "問": 351,
      "営": 352,
      "器": 353,
      "四": 354,
      "回": 355,
      "国": 356,
      "地": 357,
      "場": 358,
      "士": 359,
      "多": 360,
      "大": 361,
      "好": 362,
      "姿": 363,
      "子": 364,
      "孤": 365,
      "学": 366,
      "完": 367,
      "実": 368,
      "客": 369,
      "宮": 370,
      "家": 371,
      "対": 372,
      "工": 373,
      "希": 374,
      "年": 375,
      "度": 376,
      "弊": 377,
      "弟": 378,
      "張": 379,
      "当": 380,
      "影": 381,
      "役": 382,
      "後": 383,
      "得": 384,
      "意": 385,
      "所": 386,
      "払": 387,
      "技": 388,
      "抜": 389,
      "授": 390,
      "撮": 391,
      "支": 392,
      "教": 393,
      "数": 394,
      "料": 395,
      "断": 396,
      "新": 397,
      "方": 398,
      "施": 399,
      "族": 400,
      "日": 401,
      "旧": 402,
      "明": 403,
      "時": 404,
      "晴": 405,
      "更": 406,
      "書": 407,
      "望": 408,
      "期": 409,
      "末": 410,
      "本": 411,
      "枚": 412,
      "業": 413,
      "様": 414,
      "正": 415,
      "残": 416,
      "氷": 417,
      "河": 418,
      "法": 419,
      "然": 420,
      "版": 421,
      "物": 422,
      "現": 423,
      "理": 424,
      "生": 425,
      "由": 426,
      "番": 427,
      "発": 428,
      "登": 429,
      "的": 430,
      "相": 431,
      "真": 432,
      "知": 433,
      "石": 434,
      "確": 435,
      "社": 436,
      "神": 437,
      "科": 438,
      "程": 439,
      "税": 440,
      "立": 441,
      "笑": 442,
      "第": 443,
      "管": 444,
      "系": 445,
      "紀": 446,
      "約": 447,
      "納": 448,
      "終": 449,
      "経": 450,
      "絡": 451,
      "統": 452,
      "緊": 453,
      "総": 454,
      "緒": 455,
      "翻": 456,
      "考": 457,
      "者": 458,
      "能": 459,
      "自": 460,
      "至": 461,
      "致": 462,
      "著": 463,
      "衆": 464,
      "行": 465,
      "術": 466,
      "複": 467,
      "角": 468,
      "解": 469,
      "言": 470,
      "記": 471,
      "許": 472,
      "訳": 473,
      "認": 474,
      "語": 475,
      "説": 476,
      "論": 477,
      "象": 478,
      "質": 479,
      "込": 480,
      "述": 481,
      "途": 482,
      "連": 483,
      "金": 484,
      "録": 485,
      "間": 486,
      "除": 487,
      "頭": 488,
      "顔": 489,
      "願": 490,
      "類": 491,
      "": 492,
      "！": 493,
      "（": 494,
      "）": 495,
      "＋": 496,
      "０": 497,
      "２": 498,
      "５": 499,
      "：": 500,
      "？": 501,
      "￥": 502,
      "in": 503,
      "he": 504,
      "er": 505,
      "an": 506,
      "the": 507,
      "on": 508,
      "or": 509,
      "ar": 510,
      "at": 511,
      "en": 512,
      "re": 513,
      "it": 514,
      "is": 515,
      "de": 516,
      "as": 517,
      "al": 518,
      "ur": 519,
      "co": 520,
      "ed": 521,
      "ir": 522,
      ";\\": 523,
      "si": 524,
      "st": 525,
      "am": 526,
      "ab": 527,
      "um": 528,
      "to": 529,
      "ag": 530,
      "and": 531,
      "int": 532,
      "ro": 533,
      "of": 534,
      "se": 535,
      "le": 536,
      "coin": 537,
      "ing": 538,
      "im": 539,
      "un": 540,
      "ub": 541,
      "we": 542,
      "ut": 543,
      "ye": 544,
      "ic": 545,
      "ik": 546,
      "for": 547,
      "ak": 548,
      "be": 549,
      "ug": 550,
      "ne": 551,
      "ion": 552,
      "ac": 553,
      "ad": 554,
      "ig": 555,
      "th": 556,
      ");\\": 557,
      "ver": 558,
      "ent": 559,
      "sig": 560,
      "ch": 561,
      "uk": 562,
      "sign": 563,
      "ce": 564,
      "us": 565,
      "di": 566,
      "ly": 567,
      "om": 568,
      "ter": 569,
      "wa": 570,
      "design": 571,
      "new": 572,
      "was": 573,
      "18": 574,
      "age": 575,
      "no": 576,
      "iz": 577,
      "uc": 578,
      "ere": 579,
      "po": 580,
      "sh": 581,
      "il": 582,
      "con": 583,
      "ation": 584,
      "ge": 585,
      "str": 586,
      "ap": 587,
      "iv": 588,
      "ul": 589,
      "coinage": 590,
      "go": 591,
      "(\"": 592,
      "te": 593,
      "ib": 594,
      "{\\": 595,
      "el": 596,
      "pr": 597,
      "if": 598,
      "yo": 599,
      "af": 600,
      "ah": 601,
      "ie": 602,
      ")\\": 603,
      "coins": 604,
      "pro": 605,
      "verse": 606,
      "ile": 607,
      "ze": 608,
      "The": 609,
      "ma": 610,
      "id": 611,
      "wit": 612,
      "print": 613,
      "ish": 614,
      "ld": 615,
      "ob": 616,
      "ue": 617,
      "189": 618,
      "av": 619,
      "ame": 620,
      "printf": 621,
      "za": 622,
      "but": 623,
      "tor": 624,
      "ira": 625,
      "sc": 626,
      "cl": 627,
      "ay": 628,
      "pl": 629,
      "}\\": 630,
      "ia": 631,
      "ih": 632,
      "so": 633,
      "pos": 634,
      "iye": 635,
      "with": 636,
      "ber": 637,
      "Vic": 638,
      "by": 639,
      "ind": 640,
      "toria": 641,
      "Victoria": 642,
      "pre": 643,
      "ear": 644,
      "ang": 645,
      "ort": 646,
      "ana": 647,
      "me": 648,
      "wh": 649,
      "Jub": 650,
      "num": 651,
      "wn": 652,
      "ilee": 653,
      "Jubilee": 654,
      "->": 655,
      "der": 656,
      "ime": 657,
      "sent": 658,
      "had": 659,
      "ss": 660,
      "inel": 661,
      "one": 662,
      "char": 663,
      "ome": 664,
      "\",": 665,
      "je": 666,
      "are": 667,
      "aba": 668,
      "node": 669,
      "mo": 670,
      "ate": 671,
      "undi": 672,
      "that": 673,
      "ya": 674,
      "zi": 675,
      "lo": 676,
      "nd": 677,
      "were": 678,
      "ther": 679,
      "clu": 680,
      "\");\\": 681,
      "ore": 682,
      "reverse": 683,
      "ct": 684,
      "ally": 685,
      "tu": 686,
      "kw": 687,
      "ph": 688,
      "use": 689,
      "ret": 690,
      "struc": 691,
      "clude": 692,
      "port": 693,
      "include": 694,
      "sentinel": 695,
      "duc": 696,
      "war": 697,
      "ive": 698,
      "ash": 699,
      "uru": 700,
      "ll": 701,
      "hen": 702,
      "hm": 703,
      "val": 704,
      "ill": 705,
      "ex": 706,
      "pen": 707,
      "head": 708,
      "Th": 709,
      "pe": 710,
      "com": 711,
      "bur": 712,
      "can": 713,
      "do": 714,
      "den": 715,
      "ht": 716,
      "ny": 717,
      "wo": 718,
      "ush": 719,
      "ations": 720,
      "cro": 721,
      "lver": 722,
      "its": 723,
      "silver": 724,
      "number": 725,
      "//": 726,
      "node_": 727,
      "crown": 728,
      "Go": 729,
      "tr": 730,
      "ack": 731,
      "Bo": 732,
      "mu": 733,
      "na": 734,
      "obverse": 735,
      "In": 736,
      "ehm": 737,
      "ke": 738,
      "ora": 739,
      "ite": 740,
      "ugu": 741,
      "tho": 742,
      "188": 743,
      "iza": 744,
      "Boehm": 745,
      "han": 746,
      "time": 747,
      "arr": 748,
      "urn": 749,
      "amb": 750,
      "ihugu": 751,
      "return": 752,
      ">\\": 753,
      "fer": 754,
      "gu": 755,
      "qu": 756,
      "intro": 757,
      "che": 758,
      "mat": 759,
      "ta": 760,
      "ine": 761,
      "not": 762,
      "early": 763,
      "duced": 764,
      "introduced": 765,
      "mit": 766,
      "era": 767,
      "ari": 768,
      "bec": 769,
      "ult": 770,
      "main": 771,
      "same": 772,
      "ama": 773,
      "after": 774,
      "ies": 775,
      "ure": 776,
      "vo": 777,
      "ata": 778,
      "ura": 779,
      "aka": 780,
      "ose": 781,
      "19": 782,
      "ial": 783,
      "designs": 784,
      "tee": 785,
      "gen": 786,
      "ment": 787,
      "nk": 788,
      "ane": 789,
      "ise": 790,
      "sider": 791,
      "ight": 792,
      "cess": 793,
      "consider": 794,
      "(\"%": 795,
      "tion": 796,
      "report": 797,
      "ded": 798,
      "irst": 799,
      "cy": 800,
      "first": 801,
      "abo": 802,
      "ika": 803,
      "mittee": 804,
      "cur": 805,
      "nt": 806,
      "zo": 807,
      "ated": 808,
      "les": 809,
      "this": 810,
      "plac": 811,
      "==": 812,
      "ho": 813,
      "mp": 814,
      "gold": 815,
      "struck": 816,
      "void": 817,
      "su": 818,
      "yal": 819,
      "ange": 820,
      "ist": 821,
      "imb": 822,
      "denom": 823,
      "*/": 824,
      "/*": 825,
      "es": 826,
      "her": 827,
      "iri": 828,
      "curr": 829,
      "*/\\": 830,
      "He": 831,
      "Jose": 832,
      "other": 833,
      "yon": 834,
      "ers": 835,
      "anf": 836,
      "art": 837,
      "andi": 838,
      "uga": 839,
      "used": 840,
      "1892": 841,
      "scanf": 842,
      "Joseph": 843,
      "fo": 844,
      "tit": 845,
      "wi": 846,
      "any": 847,
      "ara": 848,
      "eng": 849,
      "uko": 850,
      "schen": 851,
      "Goschen": 852,
      "No": 853,
      "io": 854,
      "ast": 855,
      "dio": 856,
      "denomin": 857,
      "cul": 858,
      "data": 859,
      "uye": 860,
      "ant": 861,
      "ator": 862,
      "red": 863,
      "posit": 864,
      "anga": 865,
      "ck": 866,
      "cir": 867,
      "dis": 868,
      "em": 869,
      "pie": 870,
      "some": 871,
      "piece": 872,
      "++": 873,
      "Ex": 874,
      "Old": 875,
      "ihe": 876,
      "put": 877,
      "ws": 878,
      "onar": 879,
      "ised": 880,
      "aban": 881,
      "uma": 882,
      "ung": 883,
      "ikir": 884,
      "shill": 885,
      "propos": 886,
      "array": 887,
      "became": 888,
      "190": 889,
      "gener": 890,
      "Head": 891,
      "circul": 892,
      "shilling": 893,
      ".[": 894,
      "As": 895,
      "bak": 896,
      "gr": 897,
      "vy": 898,
      "ino": 899,
      "off": 900,
      "und": 901,
      "ubur": 902,
      "change": 903,
      "ize": 904,
      "fr": 905,
      "ka": 906,
      "ku": 907,
      "arik": 908,
      "ugh": 909,
      "cont": 910,
      "appro": 911,
      "uld": 912,
      "inda": 913,
      "This": 914,
      "00": 915,
      "Chan": 916,
      "De": 917,
      "Ge": 918,
      "mak": 919,
      "hex": 920,
      "ase": 921,
      "all": 922,
      "umu": 923,
      "unt": 924,
      "ich": 925,
      "ferred": 926,
      "quer": 927,
      "Node": 928,
      "Geor": 929,
      "hor": 930,
      "ot": 931,
      "ст": 932,
      "cell": 933,
      "1893": 934,
      "soon": 935,
      "preferred": 936,
      "while": 937,
      "1888": 938,
      "chequer": 939,
      "matter": 940,
      "Exchequer": 941,
      "Chancell": 942,
      "George": 943,
      "Chancellor": 944,
      ":\\": 945,
      "ba": 946,
      "fl": 947,
      "ire": 948,
      "ko": 949,
      "kub": 950,
      "lon": 951,
      "op": 952,
      "ud": 953,
      "ence": 954,
      "alf": 955,
      "action": 956,
      "app": 957,
      "ishim": 958,
      "ious": 959,
      "ci": 960,
      "yag": 961,
      "ins": 962,
      "anye": 963,
      "ity": 964,
      "also": 965,
      "size": 966,
      "able": 967,
      "ward": 968,
      "node_curr": 969,
      "har": 970,
      "his": 971,
      "half": 972,
      "kug": 973,
      "nvoid": 974,
      "vie": 975,
      "there": 976,
      "res": 977,
      "umwe": 978,
      "shi": 979,
      "sho": 980,
      "get": 981,
      "which": 982,
      "That": 983,
      "Que": 984,
      "aut": 985,
      "bo": 986,
      "br": 987,
      "bre": 988,
      "bore": 989,
      "fe": 990,
      "gus": 991,
      "ije": 992,
      "mw": 993,
      "ning": 994,
      "per": 995,
      "rit": 996,
      "vid": 997,
      "ση": 998,
      "ни": 999,
      "ero": 1000,
      "only": 1001,
      "replac": 1002,
      "sion": 1003,
      "amwe": 1004,
      "icial": 1005,
      "point": 1006,
      "\",&": 1007,
      "value": 1008,
      "author": 1009,
      "ds": 1010,
      "guk": 1011,
      "hav": 1012,
      "kno": 1013,
      "nint": 1014,
      "xpen": 1015,
      "zwe": 1016,
      "ра": 1017,
      "inu": 1018,
      "anya": 1019,
      "ati": 1020,
      "sixpen": 1021,
      "royal": 1022,
      "been": 1023,
      "avuga": 1024,
      "appear": 1025,
      "Queen": 1026,
      "sixpence": 1027,
      "Co": 1028,
      "Com": 1029,
      "Mint": 1030,
      "dom": 1031,
      "mur": 1032,
      "sin": 1033,
      "sum": 1034,
      "tw": 1035,
      "xt": 1036,
      "ου": 1037,
      "ath": 1038,
      "end": 1039,
      "stdio": 1040,
      "une": 1041,
      "bet": 1042,
      "igihugu": 1043,
      "else": 1044,
      "made": 1045,
      "metho": 1046,
      "positive": 1047,
      "abantu": 1048,
      "uburundi": 1049,
      "ariko": 1050,
      "En": 1051,
      "Ne": 1052,
      "bag": 1053,
      "giv": 1054,
      "mb": 1055,
      "ry": 1056,
      "she": 1057,
      "sub": 1058,
      "yi": 1059,
      "ans": 1060,
      "ars": 1061,
      "revie": 1062,
      "dec": 1063,
      "stack": 1064,
      "root": 1065,
      "wait": 1066,
      "mok": 1067,
      "generally": 1068,
      "given": 1069,
      "**": 1070,
      "Sir": 1071,
      "Some": 1072,
      "bu": 1073,
      "bat": 1074,
      "fro": 1075,
      "kur": 1076,
      "kandi": 1077,
      "muk": 1078,
      "mult": 1079,
      "rw": 1080,
      "uze": 1081,
      "ve": 1082,
      "yam": 1083,
      "remain": 1084,
      "issu": 1085,
      "alter": 1086,
      "anda": 1087,
      "ubu": 1088,
      "well": 1089,
      "ike": 1090,
      "died": 1091,
      "designer": 1092,
      "ilst": 1093,
      "appoint": 1094,
      "1890": 1095,
      "whilst": 1096,
      "reverses": 1097,
      "struct": 1098,
      "committee": 1099,
      "consideration": 1100,
      "reported": 1101,
      "denominations": 1102,
      "proposing": 1103,
      "official": 1104,
      "Design": 1105,
      "thereafter": 1106,
      "replacing": 1107,
      "Coins": 1108,
      "Committee": 1109,
      "reviews": 1110,
      "from": 1111,
      "issued": 1112,
      "alterations": 1113,
      "appointed": 1114,
      "officials": 1115,
      "40": 1116,
      "Al": 1117,
      "Pr": 1118,
      "cal": 1119,
      "ef": 1120,
      "len": 1121,
      "min": 1122,
      "uble": 1123,
      "ween": 1124,
      "uka": 1125,
      "you": 1126,
      "break": 1127,
      "between": 1128,
      "IN": 1129,
      "LL": 1130,
      "Le": 1131,
      "Ro": 1132,
      "ij": 1133,
      "ip": 1134,
      "ved": 1135,
      "ona": 1136,
      "atin": 1137,
      "ister": 1138,
      "iro": 1139,
      "umun": 1140,
      "umug": 1141,
      "inter": 1142,
      "form": 1143,
      "necess": 1144,
      "cons": 1145,
      "double": 1146,
      "though": 1147,
      "fraction": 1148,
      "have": 1149,
      "June": 1150,
      "VI": 1151,
      "][": 1152,
      "_s": 1153,
      "ain": 1154,
      "ause": 1155,
      "kuko": 1156,
      "lic": 1157,
      "more": 1158,
      "nit": 1159,
      "pc": 1160,
      "ra": 1161,
      "ικ": 1162,
      "indi": 1163,
      "onze": 1164,
      "iss": 1165,
      "std": 1166,
      "umuk": 1167,
      "rock": 1168,
      "aha": 1169,
      "press": 1170,
      "continu": 1171,
      "fect": 1172,
      "Prime": 1173,
      "consist": 1174,
      "_sz": 1175,
      "NU": 1176,
      "cab": 1177,
      "five": 1178,
      "gut": 1179,
      "out": 1180,
      "part": 1181,
      "suc": 1182,
      "inally": 1183,
      "ano": 1184,
      "ord": 1185,
      "orig": 1186,
      "order": 1187,
      "ene": 1188,
      "enye": 1189,
      "ass": 1190,
      "alis": 1191,
      "allo": 1192,
      "urther": 1193,
      "umw": 1194,
      "beg": 1195,
      "enter": 1196,
      "designed": 1197,
      "short": 1198,
      "aho": 1199,
      "They": 1200,
      "nday": 1201,
      "inet": 1202,
      "titles": 1203,
      "ength": 1204,
      "++)\\": 1205,
      "make": 1206,
      "known": 1207,
      "Enter": 1208,
      "New": 1209,
      "issue": 1210,
      "NULL": 1211,
      "success": 1212,
      "Brit": 1213,
      "Brock": 1214,
      "Char": 1215,
      "Ed": 1216,
      "IM": 1217,
      "King": 1218,
      "Latin": 1219,
      "Lord": 1220,
      "Min": 1221,
      "Salis": 1222,
      "Unit": 1223,
      "Wyon": 1224,
      "au": 1225,
      "bit": 1226,
      "bas": 1227,
      "case": 1228,
      "fre": 1229,
      "hag": 1230,
      "ks": 1231,
      "med": 1232,
      "monar": 1233,
      "ple": 1234,
      "smok": 1235,
      "τη": 1236,
      "но": 1237,
      "он": 1238,
      "init": 1239,
      "inning": 1240,
      "orin": 1241,
      "itated": 1242,
      "death": 1243,
      "could": 1244,
      "colon": 1245,
      "row": 1246,
      "coinci": 1247,
      "imal": 1248,
      "imana": 1249,
      "ical": 1250,
      "bear": 1251,
      "next": 1252,
      "ach": 1253,
      "dia": 1254,
      "1840": 1255,
      "afr": 1256,
      "lden": 1257,
      "1895": 1258,
      "penny": 1259,
      "bury": 1260,
      "Golden": 1261,
      "India": 1262,
      "1887": 1263,
      "because": 1264,
      "placed": 1265,
      "four": 1266,
      "title": 1267,
      "empress": 1268,
      "onard": 1269,
      "ikirundi": 1270,
      "1901": 1271,
      "1902": 1272,
      "circulation": 1273,
      "circulated": 1274,
      "approved": 1275,
      "until": 1276,
      "florin": 1277,
      "result": 1278,
      "bronze": 1279,
      "authorised": 1280,
      "since": 1281,
      "multi": 1282,
      "Although": 1283,
      "effect": 1284,
      "IND": 1285,
      "Leonard": 1286,
      "necessitated": 1287,
      "fractions": 1288,
      "VII": 1289,
      "continued": 1290,
      "consisted": 1291,
      "cabinet": 1292,
      "originally": 1293,
      "beginning": 1294,
      "ndayishim": 1295,
      "successor": 1296,
      "British": 1297,
      "Charles": 1298,
      "Edward": 1299,
      "IMP": 1300,
      "Kingdom": 1301,
      "Minister": 1302,
      "Salisbury": 1303,
      "United": 1304,
      "monarch": 1305,
      "colonies": 1306,
      "coincided": 1307,
      "1840s": 1308,
      "){\\": 1309,
      "bar": 1310,
      "bir": 1311,
      "ca": 1312,
      "cnk": 1313,
      "gush": 1314,
      "od": 1315,
      "pub": 1316,
      "sp": 1317,
      "sal": 1318,
      "ts": 1319,
      "tre": 1320,
      "ηση": 1321,
      "ιν": 1322,
      "inde": 1323,
      "input": 1324,
      "isi": 1325,
      "irinda": 1326,
      "state": 1327,
      "aga": 1328,
      "ima": 1329,
      "temp": 1330,
      "guh": 1331,
      "about": 1332,
      "yagize": 1333,
      "gusa": 1334,
      "stack_": 1335,
      "Royal": 1336,
      "statement": 1337,
      "()\\": 1338,
      ");": 1339,
      "));\\": 1340,
      "10": 1341,
      "100": 1342,
      "='": 1343,
      "bw": 1344,
      "ben": 1345,
      "du": 1346,
      "hig": 1347,
      "hari": 1348,
      "hamwe": 1349,
      "ico": 1350,
      "kir": 1351,
      "lack": 1352,
      "length": 1353,
      "mug": 1354,
      "mber": 1355,
      "ol": 1356,
      "our": 1357,
      "ty": 1358,
      "tse": 1359,
      "yat": 1360,
      "arg": 1361,
      "dem": 1362,
      "amak": 1363,
      "intu": 1364,
      "ikaba": 1365,
      "iba": 1366,
      "ndị": 1367,
      "cyane": 1368,
      "denominator": 1369,
      "sizeof": 1370,
      "ndayishimiye": 1371,
      "<<": 1372,
      "We": 1373,
      "];\\": 1374,
      "bab": 1375,
      "ep": 1376,
      "est": 1377,
      "last": 1378,
      "mun": 1379,
      "mallo": 1380,
      "nde": 1381,
      "rụ": 1382,
      "right": 1383,
      "va": 1384,
      "yav": 1385,
      "ρο": 1386,
      "ов": 1387,
      "та": 1388,
      "ina": 1389,
      "abag": 1390,
      "umur": 1391,
      "agara": 1392,
      "imi": 1393,
      "ubwo": 1394,
      "ikor": 1395,
      "acter": 1396,
      "ivyo": 1397,
      "plane": 1398,
      "numer": 1399,
      "character": 1400,
      "low": 1401,
      "ction": 1402,
      "wara": 1403,
      "ambo": 1404,
      "enga": 1405,
      "effects": 1406,
      "malloc": 1407,
      "ndetse": 1408,
      "20": 1409,
      "Num": 1410,
      "Of": 1411,
      "Sent": 1412,
      "]\\": 1413,
      "buk": 1414,
      "cre": 1415,
      "fin": 1416,
      "fuk": 1417,
      "gihugu": 1418,
      "ji": 1419,
      "men": 1420,
      "mad": 1421,
      "ni": 1422,
      "nab": 1423,
      "ser": 1424,
      "whe": 1425,
      "κα": 1426,
      "με": 1427,
      "μο": 1428,
      "στ": 1429,
      "ар": 1430,
      "ел": 1431,
      "ол": 1432,
      "then": 1433,
      "ory": 1434,
      "atu": 1435,
      "def": 1436,
      "irimb": 1437,
      "abil": 1438,
      "ument": 1439,
      "anduk": 1440,
      "lear": 1441,
      "ungu": 1442,
      "weight": 1443,
      "ice": 1444,
      "iki": 1445,
      "ako": 1446,
      "add": 1447,
      "igihe": 1448,
      "very": 1449,
      "strlen": 1450,
      "(\"\\": 1451,
      "prev": 1452,
      "log": 1453,
      "ext": 1454,
      "burundi": 1455,
      "node_new": 1456,
      "key": 1457,
      "methods": 1458,
      "based": 1459,
      "hagati": 1460,
      "public": 1461,
      "Sentinel": 1462,
      "fukam": 1463,
      "';\\": 1464,
      "))\\": 1465,
      ")]\\": 1466,
      "16": 1467,
      "FA": 1468,
      "T_": 1469,
      "Tra": 1470,
      "Val": 1471,
      "cent": 1472,
      "cise": 1473,
      "ev": 1474,
      "fd": 1475,
      "ga": 1476,
      "ger": 1477,
      "gis": 1478,
      "has": 1479,
      "iate": 1480,
      "like": 1481,
      "spe": 1482,
      "up": 1483,
      "ual": 1484,
      "ust": 1485,
      "wor": 1486,
      "yar": 1487,
      "yab": 1488,
      "αξ": 1489,
      "ых": 1490,
      "anzwe": 1491,
      "they": 1492,
      "ark": 1493,
      "aro": 1494,
      "ary": 1495,
      "enya": 1496,
      "rect": 1497,
      "ities": 1498,
      "amu": 1499,
      "leta": 1500,
      "imo": 1501,
      "unwa": 1502,
      "versal": 1503,
      "div": 1504,
      "tern": 1505,
      "gest": 1506,
      "aph": 1507,
      "afite": 1508,
      "scr": 1509,
      "kwirinda": 1510,
      "canke": 1511,
      "amba": 1512,
      "ambwe": 1513,
      "matora": 1514,
      "position": 1515,
      "proposed": 1516,
      "graph": 1517,
      "index": 1518,
      "numerator": 1519,
      "fukamunwa": 1520,
      "Traversal": 1521,
      "--": 1522,
      "EN": 1523,
      "Ho": 1524,
      "TI": 1525,
      "back": 1526,
      "cus": 1527,
      "fall": 1528,
      "gat": 1529,
      "gihe": 1530,
      "gero": 1531,
      "ide": 1532,
      "ily": 1533,
      "iyo": 1534,
      "lib": 1535,
      "might": 1536,
      "old": 1537,
      "par": 1538,
      "sug": 1539,
      "uv": 1540,
      "vyo": 1541,
      "yishim": 1542,
      "μηση": 1543,
      "τε": 1544,
      "όμηση": 1545,
      "ли": 1546,
      "от": 1547,
      "ọrụ": 1548,
      "iny": 1549,
      "inwa": 1550,
      "hes": 1551,
      "anza": 1552,
      "ating": 1553,
      "ita": 1554,
      "ason": 1555,
      "abar": 1556,
      "abak": 1557,
      "umwa": 1558,
      "ingo": 1559,
      "ication": 1560,
      "ikom": 1561,
      "neza": 1562,
      "ions": 1563,
      "ign": 1564,
      "thing": 1565,
      "str1": 1566,
      "str2": 1567,
      "afash": 1568,
      "max": 1569,
      "oba": 1570,
      "obora": 1571,
      "hengero": 1572,
      "cane": 1573,
      "much": 1574,
      "mbere": 1575,
      "mukino": 1576,
      "mediate": 1577,
      "afrika": 1578,
      "ινόμηση": 1579,
      "irimbo": 1580,
      "previous": 1581,
      "Value": 1582,
      "αξινόμηση": 1583,
      "scrip": 1584,
      ").": 1585,
      ".\\": 1586,
      "It": 1587,
      "RE": 1588,
      "bly": 1589,
      "cnd": 1590,
      "due": 1591,
      "ek": 1592,
      "ele": 1593,
      "ha": 1594,
      "iw": 1595,
      "lit": 1596,
      "man": 1597,
      "name": 1598,
      "none": 1599,
      "ok": 1600,
      "pon": 1601,
      "pat": 1602,
      "ped": 1603,
      "uw": 1604,
      "uz": 1605,
      "wir": 1606,
      "will": 1607,
      "yak": 1608,
      "yaka": 1609,
      "ziza": 1610,
      "ια": 1611,
      "πο": 1612,
      "од": 1613,
      "ink": 1614,
      "ercise": 1615,
      "ong": 1616,
      "arans": 1617,
      "del": 1618,
      "col": 1619,
      "iriye": 1620,
      "still": 1621,
      "abandi": 1622,
      "umut": 1623,
      "toza": 1624,
      "rough": 1625,
      "inga": 1626,
      "uba": 1627,
      "icle": 1628,
      "best": 1629,
      "ught": 1630,
      "act": 1631,
      "ukun": 1632,
      "string": 1633,
      "got": 1634,
      "ibintu": 1635,
      "proce": 1636,
      "produc": 1637,
      "omeye": 1638,
      "phy": 1639,
      "valu": 1640,
      "comm": 1641,
      "nyuma": 1642,
      "node_data": 1643,
      "article": 1644,
      "general": 1645,
      "long": 1646,
      "should": 1647,
      "mwaka": 1648,
      "method": 1649,
      "stdlib": 1650,
      "fresh": 1651,
      "benshi": 1652,
      "Number": 1653,
      "final": 1654,
      "whether": 1655,
      "fdd": 1656,
      "suggest": 1657,
      "script": 1658,
      "cndd": 1659,
      "aransa": 1660,
      "');\\": 1661,
      "('": 1662,
      "*)": 1663,
      "<=": 1664,
      "Further": 1665,
      "LE": 1666,
      "On": 1667,
      "She": 1668,
      "Sep": 1669,
      "aud": 1670,
      "bi": 1671,
      "bam": 1672,
      "crit": 1673,
      "dub": 1674,
      "done": 1675,
      "et": 1676,
      "evid": 1677,
      "further": 1678,
      "jwe": 1679,
      "jye": 1680,
      "just": 1681,
      "kig": 1682,
      "my": 1683,
      "many": 1684,
      "mall": 1685,
      "pan": 1686,
      "rwe": 1687,
      "rug": 1688,
      "ray": 1689,
      "sport": 1690,
      "small": 1691,
      "tụ": 1692,
      "two": 1693,
      "tmp": 1694,
      "wat": 1695,
      "wiye": 1696,
      "Ταξινόμηση": 1697,
      "αν": 1698,
      "νη": 1699,
      "προ": 1700,
      "σε": 1701,
      "ем": 1702,
      "ет": 1703,
      "на": 1704,
      "об": 1705,
      "ango": 1706,
      "another": 1707,
      "ond": 1708,
      "ongo": 1709,
      "oro": 1710,
      "rem": 1711,
      "rest": 1712,
      "ition": 1713,
      "urimi": 1714,
      "sibly": 1715,
      "stud": 1716,
      "abana": 1717,
      "abiri": 1718,
      "agar": 1719,
      "inte": 1720,
      "rol": 1721,
      "let": 1722,
      "ubw": 1723,
      "ubut": 1724,
      "ugwa": 1725,
      "adu": 1726,
      "igit": 1727,
      "izi": 1728,
      "izwa": 1729,
      "pop": 1730,
      "tember": 1731,
      "yobo": 1732,
      "afise": 1733,
      "isha": 1734,
      "clen": 1735,
      "play": 1736,
      "possibly": 1737,
      "sentare": 1738,
      "area": 1739,
      "included": 1740,
      "exercise": 1741,
      "coming": 1742,
      "cannot": 1743,
      "doc": 1744,
      "trans": 1745,
      "hanzi": 1746,
      "amaj": 1747,
      "discus": 1748,
      "control": 1749,
      "making": 1750,
      "opped": 1751,
      "vidual": 1752,
      "раст": 1753,
      "twor": 1754,
      "subscript": 1755,
      "decimal": 1756,
      "interval": 1757,
      "individual": 1758,
      "orderTraversal": 1759,
      "enyesh": 1760,
      "smokers": 1761,
      "kirundi": 1762,
      "demic": 1763,
      "menu": 1764,
      "ability": 1765,
      "andukanye": 1766,
      "spec": 1767,
      "ENT": 1768,
      "ikombe": 1769,
      "afashwe": 1770,
      "pattern": 1771,
      "physi": 1772,
      "valuable": 1773,
      "suggests": 1774,
      "September": 1775,
      "evidence": 1776,
      "pandemic": 1777,
      "discussion": 1778,
      "&&": 1779,
      "(!": 1780,
      "();\\": 1781,
      "+=": 1782,
      "??": 1783,
      "LU": 1784,
      "Mark": 1785,
      "St": 1786,
      "Sto": 1787,
      "],": 1788,
      "]);\\": 1789,
      "_t": 1790,
      "_result": 1791,
      "bac": 1792,
      "bah": 1793,
      "cap": 1794,
      "eign": 1795,
      "fat": 1796,
      "gre": 1797,
      "gil": 1798,
      "hab": 1799,
      "hast": 1800,
      "kam": 1801,
      "lik": 1802,
      "light": 1803,
      "mised": 1804,
      "ng": 1805,
      "ns": 1806,
      "pap": 1807,
      "push": 1808,
      "pass": 1809,
      "ted": 1810,
      "uza": 1811,
      "wan": 1812,
      "wis": 1813,
      "wro": 1814,
      "when": 1815,
      "wanda": 1816,
      "xious": 1817,
      "yah": 1818,
      "yash": 1819,
      "ηλ": 1820,
      "το": 1821,
      "ви": 1822,
      "ми": 1823,
      "ます": 1824,
      "inary": 1825,
      "anal": 1826,
      "ance": 1827,
      "anwa": 1828,
      "anxious": 1829,
      "onye": 1830,
      "atment": 1831,
      "rel": 1832,
      "itse": 1833,
      "ithm": 1834,
      "uro": 1835,
      "ural": 1836,
      "urun": 1837,
      "urira": 1838,
      "cout": 1839,
      "count": 1840,
      "sided": 1841,
      "stand": 1842,
      "sters": 1843,
      "stopped": 1844,
      "amp": 1845,
      "amat": 1846,
      "agap": 1847,
      "agira": 1848,
      "immediate": 1849,
      "imyaka": 1850,
      "wear": 1851,
      "wears": 1852,
      "utse": 1853,
      "yesh": 1854,
      "icised": 1855,
      "forth": 1856,
      "forward": 1857,
      "akaba": 1858,
      "acu": 1859,
      "than": 1860,
      "vereign": 1861,
      "chil": 1862,
      "did": 1863,
      "die": 1864,
      "izwe": 1865,
      "confer": 1866,
      "ivity": 1867,
      "ifaransa": 1868,
      "promised": 1869,
      "iraz": 1870,
      "plication": 1871,
      "sovereign": 1872,
      "indirimbo": 1873,
      "pres": 1874,
      "mem": 1875,
      "meant": 1876,
      "ateg": 1877,
      "expl": 1878,
      "pend": 1879,
      "ushikir": 1880,
      "Inter": 1881,
      "itego": 1882,
      "thought": 1883,
      "1889": 1884,
      "returning": 1885,
      "amaz": 1886,
      "nkurun": 1887,
      "cker": 1888,
      "disused": 1889,
      "dislik": 1890,
      "puts": 1891,
      "gradu": 1892,
      "inota": 1893,
      "fraud": 1894,
      "approval": 1895,
      "umutoza": 1896,
      "umuhanzi": 1897,
      "respon": 1898,
      "shown": 1899,
      "authorities": 1900,
      "gukora": 1901,
      "appeared": 1902,
      "subsided": 1903,
      "decent": 1904,
      "rwanda": 1905,
      "formation": 1906,
      "umukuru": 1907,
      "smoking": 1908,
      "treatment": 1909,
      "high": 1910,
      "ibazo": 1911,
      "yavuze": 1912,
      "ikorwa": 1913,
      "umentation": 1914,
      "proceed": 1915,
      "production": 1916,
      "command": 1917,
      "criticised": 1918,
      "dubious": 1919,
      "rwego": 1920,
      "study": 1921,
      "documentation": 1922,
      "physical": 1923,
      "Stocker": 1924,
      "gilded": 1925,
      "hastily": 1926,
      "passed": 1927,
      "wishes": 1928,
      "wrote": 1929,
      "ηλή": 1930,
      "analy": 1931,
      "agapfukamunwa": 1932,
      "immediately": 1933,
      "forthcoming": 1934,
      "nkurunziza": 1935,
      "dislikes": 1936,
      "gradually": 1937,
      "fraudsters": 1938,
      "responded": 1939,
      "!=": 1940,
      "),": 1941,
      "15": 1942,
      "EX": 1943,
      "HE": 1944,
      "IT_": 1945,
      "ILU": 1946,
      "MA": 1947,
      "Next": 1948,
      "Out": 1949,
      "PO": 1950,
      "Re": 1951,
      "Sum": 1952,
      "Scal": 1953,
      "]='": 1954,
      "ax": 1955,
      "az": 1956,
      "ade": 1957,
      "bụ": 1958,
      "bish": 1959,
      "bash": 1960,
      "bamwe": 1961,
      "dur": 1962,
      "eko": 1963,
      "ft": 1964,
      "fic": 1965,
      "find": 1966,
      "flo": 1967,
      "gl": 1968,
      "gor": 1969,
      "hy": 1970,
      "ier": 1971,
      "ied": 1972,
      "ki": 1973,
      "kar": 1974,
      "kere": 1975,
      "kid": 1976,
      "kera": 1977,
      "kabiri": 1978,
      "mg": 1979,
      "mor": 1980,
      "mut": 1981,
      "nl": 1982,
      "nprintf": 1983,
      "og": 1984,
      "oks": 1985,
      "pers": 1986,
      "pNext": 1987,
      "rad": 1988,
      "snt": 1989,
      "uf": 1990,
      "vari": 1991,
      "vuga": 1992,
      "wr": 1993,
      "yere": 1994,
      "ype": 1995,
      "νο": 1996,
      "ер": 1997,
      "зем": 1998,
      "их": 1999,
      "ко": 2000,
      "ных": 2001,
      "’’": 2002,
      "inshi": 2003,
      "here": 2004,
      "heze": 2005,
      "anira": 2006,
      "anji": 2007,
      "orero": 2008,
      "arch": 2009,
      "atanga": 2010,
      "ens": 2011,
      "enal": 2012,
      "enge": 2013,
      "ision": 2014,
      "asiraz": 2015,
      "algor": 2016,
      "cost": 2017,
      "come": 2018,
      "irik": 2019,
      "iryo": 2020,
      "iriza": 2021,
      "start": 2022,
      "amah": 2023,
      "abu": 2024,
      "abaf": 2025,
      "togo": 2026,
      "left": 2027,
      "imp": 2028,
      "year": 2029,
      "yeme": 2030,
      "ikibazo": 2031,
      "akore": 2032,
      "akuru": 2033,
      "networ": 2034,
      "ace": 2035,
      "actor": 2036,
      "chinwa": 2037,
      "wap": 2038,
      "ization": 2039,
      "pow": 2040,
      "polit": 2041,
      "cond": 2042,
      "ibihugu": 2043,
      "ife": 2044,
      "ahụ": 2045,
      "ishure": 2046,
      "iho": 2047,
      "anganji": 2048,
      "mod": 2049,
      "most": 2050,
      "model": 2051,
      "exit": 2052,
      "number1": 2053,
      "number2": 2054,
      "node_togo": 2055,
      "tain": 2056,
      "amaze": 2057,
      "imbere": 2058,
      "yong": 2059,
      "fol": 2060,
      "gram": 2061,
      "show": 2062,
      "ния": 2063,
      "know": 2064,
      "enda": 2065,
      "arsenal": 2066,
      "ubuchinwa": 2067,
      "audio": 2068,
      "type": 2069,
      "amakungu": 2070,
      "denominator1": 2071,
      "FAILU": 2072,
      "work": 2073,
      "element": 2074,
      "rugby": 2075,
      "rayon": 2076,
      "sports": 2077,
      "yobozi": 2078,
      "amatora": 2079,
      "child": 2080,
      "ushikiranganji": 2081,
      "Interest": 2082,
      "EXIT_": 2083,
      "Scale": 2084,
      "sntnl": 2085,
      "asirazuba": 2086,
      "algorithm": 2087,
      "FAILURE": 2088,
      "EXIT_FAILURE": 2089,
      "\"\\": 2090,
      "\";\\": 2091,
      "((": 2092,
      ">=": 2093,
      "Black": 2094,
      "CN": 2095,
      "Con": 2096,
      "ER": 2097,
      "ELE": 2098,
      "Kr": 2099,
      "SI": 2100,
      "Two": 2101,
      "THE": 2102,
      "ail": 2103,
      "bal": 2104,
      "big": 2105,
      "biz": 2106,
      "day": 2107,
      "droot": 2108,
      "fc": 2109,
      "ful": 2110,
      "gal": 2111,
      "hị": 2112,
      "hum": 2113,
      "ja": 2114,
      "list": 2115,
      "mmad": 2116,
      "nag": 2117,
      "nscanf": 2118,
      "njye": 2119,
      "ous": 2120,
      "olog": 2121,
      "pent": 2122,
      "pira": 2123,
      "rus": 2124,
      "sis": 2125,
      "sam": 2126,
      "sad": 2127,
      "swap": 2128,
      "vya": 2129,
      "wanya": 2130,
      "yu": 2131,
      "yig": 2132,
      "yaha": 2133,
      "zir": 2134,
      "zwa": 2135,
      "zone": 2136,
      "zima": 2137,
      "αμ": 2138,
      "για": 2139,
      "ει": 2140,
      "μα": 2141,
      "ού": 2142,
      "ρι": 2143,
      "του": 2144,
      "ве": 2145,
      "из": 2146,
      "ка": 2147,
      "ля": 2148,
      "не": 2149,
      "ти": 2150,
      "ые": 2151,
      "撮影": 2152,
      "infer": 2153,
      "info": 2154,
      "them": 2155,
      "oner": 2156,
      "orera": 2157,
      "aram": 2158,
      "atum": 2159,
      "ative": 2160,
      "real": 2161,
      "recurr": 2162,
      "itwa": 2163,
      "ishengero": 2164,
      "dete": 2165,
      "ashe": 2166,
      "alth": 2167,
      "urik": 2168,
      "covid": 2169,
      "irah": 2170,
      "sic": 2171,
      "sim": 2172,
      "amo": 2173,
      "amar": 2174,
      "amas": 2175,
      "abuye": 2176,
      "abona": 2177,
      "ses": 2178,
      "imwe": 2179,
      "import": 2180,
      "imple": 2181,
      "iminota": 2182,
      "una": 2183,
      "ubumwe": 2184,
      "wese": 2185,
      "ution": 2186,
      "ica": 2187,
      "icy": 2188,
      "ikin": 2189,
      "ents": 2190,
      "ereye": 2191,
      "const": 2192,
      "text": 2193,
      "ibi": 2194,
      "prin": 2195,
      "ifat": 2196,
      "prov": 2197,
      "obo": 2198,
      "oban": 2199,
      "avuye": 2200,
      "angiye": 2201,
      "mezi": 2202,
      "move": 2203,
      "ctr": 2204,
      "tuyishim": 2205,
      "kwu": 2206,
      "reta": 2207,
      "asha": 2208,
      "valid": 2209,
      "buri": 2210,
      "buryo": 2211,
      "ambara": 2212,
      "vol": 2213,
      "irije": 2214,
      "wiwe": 2215,
      "anyi": 2216,
      "bakaba": 2217,
      "kuba": 2218,
      "opt": 2219,
      "gets": 2220,
      "getsi": 2221,
      "values": 2222,
      "muri": 2223,
      "bagiye": 2224,
      "yamakuru": 2225,
      "umuntu": 2226,
      "umugambwe": 2227,
      "stdin": 2228,
      "umukino": 2229,
      "results": 2230,
      "argv": 2231,
      "denominator2": 2232,
      "planets": 2233,
      "create": 2234,
      "nabi": 2235,
      "και": 2236,
      "ель": 2237,
      "learning": 2238,
      "ikipe": 2239,
      "evar": 2240,
      "around": 2241,
      "division": 2242,
      "ekano": 2243,
      "iwacu": 2244,
      "umutekano": 2245,
      "activity": 2246,
      "ανά": 2247,
      "player": 2248,
      "amajambo": 2249,
      "paper": 2250,
      "pression": 2251,
      "explain": 2252,
      "MAX": 2253,
      "Sum_": 2254,
      "ekote": 2255,
      "kidum": 2256,
      "irikare": 2257,
      "CNN": 2258,
      "Krum": 2259,
      "galax": 2260,
      "pentekote": 2261,
      "inference": 2262,
      "recurring": 2263,
      "important": 2264,
      "tuyishimire": 2265,
      "':\\": 2266,
      "(){\\": 2267,
      "*(": 2268,
      ",\"": 2269,
      "12": 2270,
      "27": 2271,
      "Amo": 2272,
      "Cel": 2273,
      "Lo": 2274,
      "Mult": 2275,
      "Na": 2276,
      "Pro": 2277,
      "Ple": 2278,
      "RA": 2279,
      "Yo": 2280,
      "])": 2281,
      "aver": 2282,
      "bis": 2283,
      "bug": 2284,
      "cor": 2285,
      "citwa": 2286,
      "dp": 2287,
      "dr": 2288,
      "dị": 2289,
      "dro": 2290,
      "egetsi": 2291,
      "fun": 2292,
      "gb": 2293,
      "gas": 2294,
      "gro": 2295,
      "gic": 2296,
      "gik": 2297,
      "ham": 2298,
      "hinga": 2299,
      "ient": 2300,
      "iyon": 2301,
      "jy": 2302,
      "kum": 2303,
      "kwe": 2304,
      "kut": 2305,
      "kwit": 2306,
      "kenya": 2307,
      "lp": 2308,
      "lac": 2309,
      "life": 2310,
      "mag": 2311,
      "mana": 2312,
      "nib": 2313,
      "nke": 2314,
      "nstruct": 2315,
      "naho": 2316,
      "os": 2317,
      "pas": 2318,
      "p_sz": 2319,
      "r1": 2320,
      "r2": 2321,
      "ru": 2322,
      "ram": 2323,
      "rig": 2324,
      "rate": 2325,
      "sy": 2326,
      "sị": 2327,
      "ten": 2328,
      "tak": 2329,
      "uyu": 2330,
      "von": 2331,
      "vies": 2332,
      "wab": 2333,
      "wag": 2334,
      "wira": 2335,
      "yas": 2336,
      "yaba": 2337,
      "yamba": 2338,
      "zon": 2339,
      "zid": 2340,
      "zari": 2341,
      "};\\": 2342,
      "ür": 2343,
      "Δη": 2344,
      "μέ": 2345,
      "να": 2346,
      "πα": 2347,
      "ρη": 2348,
      "σι": 2349,
      "τι": 2350,
      "τικ": 2351,
      "Кар": 2352,
      "ги": 2353,
      "да": 2354,
      "ита": 2355,
      "ле": 2356,
      "ма": 2357,
      "пр": 2358,
      "ск": 2359,
      "ся": 2360,
      "то": 2361,
      "тель": 2362,
      "ют": 2363,
      "ющ": 2364,
      "され": 2365,
      "００": 2366,
      "inko": 2367,
      "inyi": 2368,
      "health": 2369,
      "help": 2370,
      "anu": 2371,
      "anz": 2372,
      "anije": 2373,
      "aniro": 2374,
      "orere": 2375,
      "ard": 2376,
      "araba": 2377,
      "ature": 2378,
      "attemp": 2379,
      "enyere": 2380,
      "recent": 2381,
      "reason": 2382,
      "iste": 2383,
      "depression": 2384,
      "urwa": 2385,
      "urika": 2386,
      "ururimi": 2387,
      "irị": 2388,
      "irwa": 2389,
      "irush": 2390,
      "irango": 2391,
      "stu": 2392,
      "amano": 2393,
      "amagara": 2394,
      "abab": 2395,
      "ump": 2396,
      "umub": 2397,
      "umva": 2398,
      "ague": 2399,
      "agiye": 2400,
      "andik": 2401,
      "andom": 2402,
      "roma": 2403,
      "search": 2404,
      "second": 2405,
      "lead": 2406,
      "least": 2407,
      "ingingo": 2408,
      "uns": 2409,
      "unsign": 2410,
      "under": 2411,
      "akar": 2412,
      "akam": 2413,
      "akure": 2414,
      "akabuye": 2415,
      "neural": 2416,
      "aca": 2417,
      "aciye": 2418,
      "igura": 2419,
      "ently": 2420,
      "ukira": 2421,
      "ukana": 2422,
      "cep": 2423,
      "omba": 2424,
      "tero": 2425,
      "pose": 2426,
      "conver": 2427,
      "ivugwa": 2428,
      "ulo": 2429,
      "good": 2430,
      "tech": 2431,
      "ibis": 2432,
      "ell": 2433,
      "prime": 2434,
      "ified": 2435,
      "afurika": 2436,
      "program": 2437,
      "iles": 2438,
      "maj": 2439,
      "may": 2440,
      "isho": 2441,
      "ishy": 2442,
      "ishije": 2443,
      "obser": 2444,
      "indura": 2445,
      "indwi": 2446,
      "ears": 2447,
      "angu": 2448,
      "angle": 2449,
      "angwa": 2450,
      "omeza": 2451,
      "omeje": 2452,
      "jean": 2453,
      "movies": 2454,
      "orezo": 2455,
      "cted": 2456,
      "pholog": 2457,
      "ashobora": 2458,
      "nyene": 2459,
      "nyanza": 2460,
      "nyakabuye": 2461,
      "wose": 2462,
      "trib": 2463,
      "traction": 2464,
      "quant": 2465,
      "check": 2466,
      "ments": 2467,
      "how": 2468,
      "super": 2469,
      "imboner": 2470,
      "emer": 2471,
      "kuz": 2472,
      "ariki": 2473,
      "kubera": 2474,
      "ciple": 2475,
      "kugira": 2476,
      "pert": 2477,
      "раз": 2478,
      "inuza": 2479,
      "output": 2480,
      "enekere": 2481,
      "bitandukanye": 2482,
      "free": 2483,
      "initValue": 2484,
      "row_sz": 2485,
      "gushika": 2486,
      "duce": 2487,
      "argument": 2488,
      "amakuru": 2489,
      "plane_sz": 2490,
      "characters": 2491,
      "bukuru": 2492,
      "bukomeye": 2493,
      "define": 2494,
      "addition": 2495,
      "ambaye": 2496,
      "numerator1": 2497,
      "numerator2": 2498,
      "gatatu": 2499,
      "inyuma": 2500,
      "abarundi": 2501,
      "finalValue": 2502,
      "finalScale": 2503,
      "onda": 2504,
      "ubwoba": 2505,
      "расте": 2506,
      "analysis": 2507,
      "adepr": 2508,
      "hyp_sz": 2509,
      "morpholog": 2510,
      "person": 2511,
      "politike": 2512,
      "human": 2513,
      "sadate": 2514,
      "unai": 2515,
      "principle": 2516,
      "provide": 2517,
      "Amount": 2518,
      "Multi": 2519,
      "Please": 2520,
      "You": 2521,
      "jyana": 2522,
      "Карт": 2523,
      "amanota": 2524,
      "unsigned": 2525,
      "understand": 2526,
      "quantiles": 2527,
      "imbonerakure": 2528,
      "enekerezo": 2529,
      "principleAmount": 2530,
      "'\\": 2531,
      "')\\": 2532,
      "()": 2533,
      ")-": 2534,
      "11": 2535,
      "14": 2536,
      "AG": 2537,
      "AL": 2538,
      "Ad": 2539,
      "Anag": 2540,
      "BC": 2541,
      "Be": 2542,
      "CA": 2543,
      "Dig": 2544,
      "Ger": 2545,
      "HI": 2546,
      "Hex": 2547,
      "Ke": 2548,
      "ML": 2549,
      "Mem": 2550,
      "MENT": 2551,
      "ON": 2552,
      "One": 2553,
      "Smok": 2554,
      "Simple": 2555,
      "Te": 2556,
      "Years": 2557,
      "]=": 2558,
      "aza": 2559,
      "adecimal": 2560,
      "aheze": 2561,
      "bye": 2562,
      "bib": 2563,
      "bie": 2564,
      "bay": 2565,
      "bihugu": 2566,
      "biri": 2567,
      "buye": 2568,
      "bihe": 2569,
      "bikaba": 2570,
      "bafite": 2571,
      "binary": 2572,
      "cum": 2573,
      "cimal": 2574,
      "dut": 2575,
      "duk": 2576,
      "dwar": 2577,
      "digit": 2578,
      "eac": 2579,
      "eza": 2580,
      "equ": 2581,
      "eka": 2582,
      "fa": 2583,
      "fprintf": 2584,
      "ffer": 2585,
      "fred": 2586,
      "flow": 2587,
      "fgets": 2588,
      "git": 2589,
      "gifaransa": 2590,
      "ii": 2591,
      "ix": 2592,
      "iwe": 2593,
      "ibe": 2594,
      "ience": 2595,
      "jirị": 2596,
      "kat": 2597,
      "kuk": 2598,
      "kom": 2599,
      "kana": 2600,
      "la": 2601,
      "lf": 2602,
      "lin": 2603,
      "mv": 2604,
      "mer": 2605,
      "mar": 2606,
      "mis": 2607,
      "mir": 2608,
      "mus": 2609,
      "mid": 2610,
      "mash": 2611,
      "nz": 2612,
      "nat": 2613,
      "ndi": 2614,
      "nsh": 2615,
      "nte": 2616,
      "nta": 2617,
      "nama": 2618,
      "nabo": 2619,
      "nubwo": 2620,
      "ost": 2621,
      "que": 2622,
      "rut": 2623,
      "rwas": 2624,
      "rurimi": 2625,
      "sa": 2626,
      "sur": 2627,
      "swit": 2628,
      "sind": 2629,
      "sses": 2630,
      "ti": 2631,
      "tas": 2632,
      "tub": 2633,
      "tfl": 2634,
      "uyo": 2635,
      "vir": 2636,
      "vug": 2637,
      "vel": 2638,
      "wind": 2639,
      "want": 2640,
      "wanyi": 2641,
      "xor": 2642,
      "yaf": 2643,
      "zit": 2644,
      "zamu": 2645,
      "έχ": 2646,
      "ής": 2647,
      "ία": 2648,
      "βά": 2649,
      "γή": 2650,
      "ες": 2651,
      "μή": 2652,
      "τα": 2653,
      "υψ": 2654,
      "χαμ": 2655,
      "вы": 2656,
      "год": 2657,
      "для": 2658,
      "ез": 2659,
      "ест": 2660,
      "ив": 2661,
      "ий": 2662,
      "или": 2663,
      "итель": 2664,
      "кр": 2665,
      "лу": 2666,
      "лет": 2667,
      "ог": 2668,
      "ро": 2669,
      "тол": 2670,
      "цы": 2671,
      "ча": 2672,
      "ыти": 2673,
      "ịjirị": 2674,
      "ọtụ": 2675,
      "して": 2676,
      "します": 2677,
      "into": 2678,
      "inny": 2679,
      "inve": 2680,
      "information": 2681,
      "erage": 2682,
      "anyo": 2683,
      "anze": 2684,
      "ono": 2685,
      "once": 2686,
      "onav": 2687,
      "ori": 2688,
      "aranga": 2689,
      "araga": 2690,
      "atung": 2691,
      "enc": 2692,
      "enshi": 2693,
      "ree": 2694,
      "resi": 2695,
      "repl": 2696,
      "reme": 2697,
      "reba": 2698,
      "isen": 2699,
      "des": 2700,
      "asub": 2701,
      "asanzwe": 2702,
      "urar": 2703,
      "urug": 2704,
      "edge": 2705,
      "irwe": 2706,
      "sius": 2707,
      "stat": 2708,
      "stder": 2709,
      "amaf": 2710,
      "ambur": 2711,
      "abon": 2712,
      "abas": 2713,
      "abam": 2714,
      "abwa": 2715,
      "ables": 2716,
      "abany": 2717,
      "ume": 2718,
      "umv": 2719,
      "umus": 2720,
      "umba": 2721,
      "umbi": 2722,
      "agon": 2723,
      "agath": 2724,
      "agenda": 2725,
      "andanya": 2726,
      "andatu": 2727,
      "intwar": 2728,
      "see": 2729,
      "season": 2730,
      "imit": 2731,
      "imis": 2732,
      "ubona": 2733,
      "uta": 2734,
      "utu": 2735,
      "utz": 2736,
      "icaha": 2737,
      "iko": 2738,
      "akw": 2739,
      "akwiye": 2740,
      "ugana": 2741,
      "need": 2742,
      "acyo": 2743,
      "actu": 2744,
      "adth": 2745,
      "igo": 2746,
      "igitego": 2747,
      "igenekerezo": 2748,
      "champ": 2749,
      "ukur": 2750,
      "wah": 2751,
      "ageze": 2752,
      "now": 2753,
      "nolog": 2754,
      "ized": 2755,
      "izere": 2756,
      "uct": 2757,
      "pot": 2758,
      "sha": 2759,
      "shamp": 2760,
      "ational": 2761,
      "geko": 2762,
      "gebie": 2763,
      "ape": 2764,
      "append": 2765,
      "ular": 2766,
      "ific": 2767,
      "your": 2768,
      "ahubwo": 2769,
      "prob": 2770,
      "propose": 2771,
      "zego": 2772,
      "witwa": 2773,
      "printing": 2774,
      "ishobora": 2775,
      "butegetsi": 2776,
      "clump": 2777,
      "soc": 2778,
      "induka": 2779,
      "present": 2780,
      "anguye": 2781,
      "numva": 2782,
      "num_result": 2783,
      "ones": 2784,
      "chars": 2785,
      "jejwe": 2786,
      "ates": 2787,
      "looks": 2788,
      "ture": 2789,
      "uruzi": 2790,
      "expe": 2791,
      "penden": 2792,
      "burasirazuba": 2793,
      "denis": 2794,
      "would": 2795,
      "numberOf": 2796,
      "ket": 2797,
      "keje": 2798,
      "arry": 2799,
      "guho": 2800,
      "gufat": 2801,
      "ches": 2802,
      "math": 2803,
      "iness": 2804,
      "ults": 2805,
      "cessation": 2806,
      "ntab": 2807,
      "ntype": 2808,
      "mpuz": 2809,
      "such": 2810,
      "denom_result": 2811,
      "/*\\": 2812,
      "hera": 2813,
      "yoni": 2814,
      "anywa": 2815,
      "angaje": 2816,
      "angazo": 2817,
      "ungirije": 2818,
      "uburyo": 2819,
      "changes": 2820,
      "kuvuga": 2821,
      "000": 2822,
      "Decimal": 2823,
      "umupira": 2824,
      "flag": 2825,
      "udup": 2826,
      "kugeza": 2827,
      "bris": 2828,
      "breadth": 2829,
      "perform": 2830,
      "них": 2831,
      "рав": 2832,
      "murico": 2833,
      "Engl": 2834,
      "subtraction": 2835,
      "kurinda": 2836,
      "yamama": 2837,
      "ijwe": 2838,
      "ijana": 2839,
      "interpre": 2840,
      "raw": 2841,
      "umwanya": 2842,
      "της": 2843,
      "она": 2844,
      "initial": 2845,
      "africa": 2846,
      "multiplication": 2847,
      "cnk1": 2848,
      "cnk2": 2849,
      "cnks": 2850,
      "space": 2851,
      "duf": 2852,
      "higanwa": 2853,
      "olika": 2854,
      "argc": 2855,
      "demon": 2856,
      "ibaza": 2857,
      "estim": 2858,
      "так": 2859,
      "umurwi": 2860,
      "OfInterest": 2861,
      "serial": 2862,
      "στο": 2863,
      "learn": 2864,
      "weighted": 2865,
      "even": 2866,
      "gisagara": 2867,
      "How": 2868,
      "TION": 2869,
      "откр": 2870,
      "wirizwa": 2871,
      "ποδ": 2872,
      "col_sz": 2873,
      "ukundo": 2874,
      "watch": 2875,
      "subscriptTwo": 2876,
      "enyeshamakuru": 2877,
      "special": 2878,
      "specified": 2879,
      "ENTER": 2880,
      "kaminuza": 2881,
      "yeshure": 2882,
      "yeshyamba": 2883,
      "didn": 2884,
      "memory": 2885,
      "amazing": 2886,
      "POSI": 2887,
      "during": 2888,
      "flows": 2889,
      "karere": 2890,
      "mgbe": 2891,
      "amahirwe": 2892,
      "abafana": 2893,
      "yemezo": 2894,
      "networks": 2895,
      "modulo": 2896,
      "yongera": 2897,
      "ELEMENT": 2898,
      "bale": 2899,
      "mmadụ": 2900,
      "detect": 2901,
      "irahamwe": 2902,
      "evariste": 2903,
      "explainability": 2904,
      "galaxy": 2905,
      "273": 2906,
      "Celsius": 2907,
      "Naịjirị": 2908,
      "drop": 2909,
      "ground": 2910,
      "gicumbi": 2911,
      "iyona": 2912,
      "rateOfInterest": 2913,
      "zoning": 2914,
      "τιμή": 2915,
      "итания": 2916,
      "inkoho": 2917,
      "orerezi": 2918,
      "enyereza": 2919,
      "unsere": 2920,
      "technolog": 2921,
      "ibisoban": 2922,
      "observ": 2923,
      "anguage": 2924,
      "emery": 2925,
      "arguments": 2926,
      "AGN": 2927,
      "Anagram": 2928,
      "Memory": 2929,
      "dwarf": 2930,
      "komine": 2931,
      "rwasa": 2932,
      "switch": 2933,
      "υψηλή": 2934,
      "χαμηλή": 2935,
      "ọtụtụ": 2936,
      "innyi": 2937,
      "invest": 2938,
      "onavir": 2939,
      "remember": 2940,
      "stderr": 2941,
      "amafaranga": 2942,
      "agathon": 2943,
      "shampiyona": 2944,
      "expected": 2945,
      "pendence": 2946,
      "numberOfYears": 2947,
      "ntypedef": 2948,
      "mpuzamakungu": 2949,
      "udupfukamunwa": 2950,
      "POSITION": 2951,
      "Naịjirịa": 2952,
      "\"))\\": 2953,
      "';": 2954,
      ")*": 2955,
      "13": 2956,
      "1名": 2957,
      ":%": 2958,
      "<='": 2959,
      "=(": 2960,
      ">='": 2961,
      "AI": 2962,
      "AR": 2963,
      "Ar": 2964,
      "Binary": 2965,
      "BBC": 2966,
      "FL": 2967,
      "Factor": 2968,
      "Harry": 2969,
      "IR": 2970,
      "IS": 2971,
      "If": 2972,
      "Im": 2973,
      "Kel": 2974,
      "Lear": 2975,
      "List": 2976,
      "MT": 2977,
      "Me": 2978,
      "Mu": 2979,
      "Name": 2980,
      "OR": 2981,
      "Pot": 2982,
      "Se": 2983,
      "Sn": 2984,
      "Sie": 2985,
      "Sear": 2986,
      "Str": 2987,
      "Stee": 2988,
      "To": 2989,
      "Ver": 2990,
      "Wit": 2991,
      "Wars": 2992,
      "Wass": 2993,
      "Yes": 2994,
      "ZE": 2995,
      "]-": 2996,
      "]).": 2997,
      "]<='": 2998,
      "]>='": 2999,
      "_decimal": 3000,
      "_Dig": 3001,
      "aim": 3002,
      "aus": 3003,
      "bin": 3004,
      "bon": 3005,
      "bor": 3006,
      "bum": 3007,
      "bub": 3008,
      "bik": 3009,
      "bad": 3010,
      "bap": 3011,
      "byo": 3012,
      "bid": 3013,
      "bav": 3014,
      "bih": 3015,
      "bite": 3016,
      "bany": 3017,
      "base": 3018,
      "bavuga": 3019,
      "bikorwa": 3020,
      "bambaye": 3021,
      "cer": 3022,
      "cle": 3023,
      "cast": 3024,
      "cup": 3025,
      "da": 3026,
      "dir": 3027,
      "dig": 3028,
      "ein": 3029,
      "eas": 3030,
      "ego": 3031,
      "egb": 3032,
      "fish": 3033,
      "ffic": 3034,
      "für": 3035,
      "gih": 3036,
      "gers": 3037,
      "ghị": 3038,
      "him": 3039,
      "haba": 3040,
      "hip": 3041,
      "hageze": 3042,
      "ian": 3043,
      "iyi": 3044,
      "jo": 3045,
      "jon": 3046,
      "jya": 3047,
      "juru": 3048,
      "jije": 3049,
      "ky": 3050,
      "kọ": 3051,
      "kro": 3052,
      "kwere": 3053,
      "kuru": 3054,
      "kill": 3055,
      "kure": 3056,
      "kiri": 3057,
      "kano": 3058,
      "kide": 3059,
      "kongo": 3060,
      "kivugwa": 3061,
      "kenshi": 3062,
      "lab": 3063,
      "lld": 3064,
      "line": 3065,
      "lian": 3066,
      "ms": 3067,
      "mas": 3068,
      "mum": 3069,
      "mere": 3070,
      "mush": 3071,
      "maka": 3072,
      "mba": 3073,
      "misi": 3074,
      "nis": 3075,
      "nig": 3076,
      "nus": 3077,
      "ngo": 3078,
      "nchar": 3079,
      "niho": 3080,
      "njyana": 3081,
      "over": 3082,
      "ozi": 3083,
      "otu": 3084,
      "oko": 3085,
      "oice": 3086,
      "pn": 3087,
      "ping": 3088,
      "pare": 3089,
      "ptr": 3090,
      "pack": 3091,
      "rọ": 3092,
      "ral": 3093,
      "rub": 3094,
      "rik": 3095,
      "ryo": 3096,
      "rie": 3097,
      "rid": 3098,
      "range": 3099,
      "random": 3100,
      "rwose": 3101,
      "sing": 3102,
      "saf": 3103,
      "sinda": 3104,
      "sens": 3105,
      "tin": 3106,
      "tur": 3107,
      "tun": 3108,
      "table": 3109,
      "tariki": 3110,
      "uce": 3111,
      "uwar": 3112,
      "uwo": 3113,
      "uheze": 3114,
      "vin": 3115,
      "vis": 3116,
      "vent": 3117,
      "ves": 3118,
      "vens": 3119,
      "wing": 3120,
      "wie": 3121,
      "wise": 3122,
      "wabo": 3123,
      "wungirije": 3124,
      "yand": 3125,
      "yay": 3126,
      "yine": 3127,
      "yango": 3128,
      "yaciye": 3129,
      "zu": 3130,
      "ziki": 3131,
      "ΑΙ": 3132,
      "ΚΑΙ": 3133,
      "ΛΙ": 3134,
      "έρ": 3135,
      "ές": 3136,
      "ίδ": 3137,
      "ίου": 3138,
      "απ": 3139,
      "αστ": 3140,
      "γρ": 3141,
      "εί": 3142,
      "εν": 3143,
      "ευ": 3144,
      "θέ": 3145,
      "θα": 3146,
      "θμ": 3147,
      "ιδ": 3148,
      "ιλ": 3149,
      "κή": 3150,
      "λύ": 3151,
      "νε": 3152,
      "νικ": 3153,
      "οί": 3154,
      "που": 3155,
      "ρε": 3156,
      "ρω": 3157,
      "σα": 3158,
      "σφ": 3159,
      "σου": 3160,
      "στη": 3161,
      "φα": 3162,
      "ών": 3163,
      "бы": 3164,
      "бли": 3165,
      "ед": 3166,
      "ей": 3167,
      "ек": 3168,
      "ера": 3169,
      "еги": 3170,
      "же": 3171,
      "жив": 3172,
      "ку": 3173,
      "ло": 3174,
      "нг": 3175,
      "нно": 3176,
      "ные": 3177,
      "под": 3178,
      "сез": 3179,
      "трав": 3180,
      "ọrọ": 3181,
      "ụrụ": 3182,
      "ụkọ": 3183,
      "いた": 3184,
      "ない": 3185,
      "など": 3186,
      "には": 3187,
      "ので": 3188,
      "写真": 3189,
      "大学": 3190,
      "料金": 3191,
      "時代": 3192,
      "発生": 3193,
      "神社": 3194,
      "insig": 3195,
      "inzo": 3196,
      "inname": 3197,
      "inorderTraversal": 3198,
      "inzego": 3199,
      "hed": 3200,
      "ani": 3201,
      "ande": 3202,
      "anter": 3203,
      "aniye": 3204,
      "their": 3205,
      "these": 3206,
      "onde": 3207,
      "onic": 3208,
      "onments": 3209,
      "orana": 3210,
      "aron": 3211,
      "arge": 3212,
      "arush": 3213,
      "arama": 3214,
      "arizwa": 3215,
      "arwanda": 3216,
      "ariho": 3217,
      "ato": 3218,
      "atab": 3219,
      "atse": 3220,
      "athan": 3221,
      "atari": 3222,
      "atial": 3223,
      "atatu": 3224,
      "enzi": 3225,
      "envir": 3226,
      "reg": 3227,
      "ream": 3228,
      "read": 3229,
      "remove": 3230,
      "itab": 3231,
      "itiye": 3232,
      "itangazo": 3233,
      "itanter": 3234,
      "isab": 3235,
      "isions": 3236,
      "deter": 3237,
      "dependence": 3238,
      "asa": 3239,
      "asi": 3240,
      "asu": 3241,
      "ases": 3242,
      "asanga": 3243,
      "ali": 3244,
      "als": 3245,
      "alain": 3246,
      "urage": 3247,
      "urwar": 3248,
      "urasirazuba": 3249,
      "coast": 3250,
      "cool": 3251,
      "iris": 3252,
      "irab": 3253,
      "irwi": 3254,
      "irizi": 3255,
      "siv": 3256,
      "sive": 3257,
      "ste": 3258,
      "star": 3259,
      "storderTraversal": 3260,
      "stream": 3261,
      "amw": 3262,
      "amuk": 3263,
      "amate": 3264,
      "amash": 3265,
      "amond": 3266,
      "abat": 3267,
      "abib": 3268,
      "abanga": 3269,
      "umire": 3270,
      "umog": 3271,
      "umushikiranganji": 3272,
      "tobac": 3273,
      "agb": 3274,
      "agije": 3275,
      "agateg": 3276,
      "agree": 3277,
      "andika": 3278,
      "intere": 3279,
      "intambwe": 3280,
      "of_Dig": 3281,
      "section": 3282,
      "sevens": 3283,
      "leg": 3284,
      "league": 3285,
      "ingiro": 3286,
      "inguv": 3287,
      "imen": 3288,
      "imira": 3289,
      "imod": 3290,
      "uny": 3291,
      "unzi": 3292,
      "ubundi": 3293,
      "uts": 3294,
      "years": 3295,
      "yezamu": 3296,
      "ick": 3297,
      "iciye": 3298,
      "ikira": 3299,
      "ikino": 3300,
      "ikintu": 3301,
      "akira": 3302,
      "being": 3303,
      "become": 3304,
      "nel": 3305,
      "nection": 3306,
      "igih": 3307,
      "igate": 3308,
      "igence": 3309,
      "igisha": 3310,
      "igikombe": 3311,
      "iganwa": 3312,
      "igisho": 3313,
      "thus": 3314,
      "think": 3315,
      "ential": 3316,
      "chutz": 3317,
      "choice": 3318,
      "uku": 3319,
      "signs": 3320,
      "diamond": 3321,
      "oma": 3322,
      "omon": 3323,
      "tera": 3324,
      "wayo": 3325,
      "noise": 3326,
      "izo": 3327,
      "izindi": 3328,
      "izina": 3329,
      "ucuruzi": 3330,
      "ereza": 3331,
      "postorderTraversal": 3332,
      "shwa": 3333,
      "congo": 3334,
      "concep": 3335,
      "connection": 3336,
      "strc": 3337,
      "strstr": 3338,
      "strength": 3339,
      "ivy": 3340,
      "ivory": 3341,
      "goal": 3342,
      "tex": 3343,
      "test": 3344,
      "ibit": 3345,
      "ibik": 3346,
      "ibig": 3347,
      "ibindi": 3348,
      "ibice": 3349,
      "ibikombe": 3350,
      "ibwirizwa": 3351,
      "iburasirazuba": 3352,
      "eling": 3353,
      "ifite": 3354,
      "ifise": 3355,
      "ificial": 3356,
      "afat": 3357,
      "promo": 3358,
      "propert": 3359,
      "There": 3360,
      "ishuye": 3361,
      "obtain": 3362,
      "avugwa": 3363,
      "ameze": 3364,
      "scen": 3365,
      "science": 3366,
      "clas": 3367,
      "aya": 3368,
      "ihu": 3369,
      "ihar": 3370,
      "iham": 3371,
      "byiza": 3372,
      "byinshi": 3373,
      "indo": 3374,
      "induct": 3375,
      "preorderTraversal": 3376,
      "angana": 3377,
      "angura": 3378,
      "who": 3379,
      "white": 3380,
      "abayobozi": 3381,
      "movie": 3382,
      "ately": 3383,
      "loc": 3384,
      "ndimi": 3385,
      "ndirimbo": 3386,
      "therm": 3387,
      "clusion": 3388,
      "kwi": 3389,
      "kwuru": 3390,
      "retse": 3391,
      "retrie": 3392,
      "structure": 3393,
      "ashika": 3394,
      "exist": 3395,
      "exper": 3396,
      "peop": 3397,
      "petero": 3398,
      "compar": 3399,
      "doka": 3400,
      "nyab": 3401,
      "usha": 3402,
      "ushize": 3403,
      "itsindo": 3404,
      "numbers": 3405,
      "train": 3406,
      "muhab": 3407,
      "muyobozi": 3408,
      "nayo": 3409,
      "hande": 3410,
      "ambi": 3411,
      "ambere": 3412,
      "guf": 3413,
      "quit": 3414,
      "quick": 3415,
      "akaza": 3416,
      "akazi": 3417,
      "gency": 3418,
      "nkuru": 3419,
      "cyat": 3420,
      "nti": 3421,
      "ntib": 3422,
      "hop": 3423,
      "hour": 3424,
      "hotera": 3425,
      "istical": 3426,
      "currently": 3427,
      "erschutz": 3428,
      "Not": 3429,
      "ants": 3430,
      "ators": 3431,
      "something": 3432,
      "++)": 3433,
      "++;": 3434,
      "abanya": 3435,
      "unga": 3436,
      "ikiriza": 3437,
      "bake": 3438,
      "vyafashwe": 3439,
      "unda": 3440,
      "content": 3441,
      "approach": 3442,
      "hex_decimal": 3443,
      "umusiv": 3444,
      "ста": 3445,
      "сть": 3446,
      "ences": 3447,
      "kugar": 3448,
      "kugirango": 3449,
      "books": 3450,
      "bruce": 3451,
      "feature": 3452,
      "mwanya": 3453,
      "σης": 3454,
      "replace": 3455,
      "hava": 3456,
      "muriyo": 3457,
      "sinze": 3458,
      "better": 3459,
      "Netfl": 3460,
      "mbapp": 3461,
      "ryar": 3462,
      "sheje": 3463,
      "decisions": 3464,
      "buil": 3465,
      "kuri": 3466,
      "mukuru": 3467,
      "multimod": 3468,
      "yamye": 3469,
      "ubuhinga": 3470,
      "ijambo": 3471,
      "umunyeshure": 3472,
      "umunyezamu": 3473,
      "umugabo": 3474,
      "necessary": 3475,
      "gutwara": 3476,
      "outname": 3477,
      "outflows": 3478,
      "allows": 3479,
      "umwana": 3480,
      "umwaka": 3481,
      "Entered": 3482,
      "την": 3483,
      "ног": 3484,
      "achine": 3485,
      "gushira": 3486,
      "gushaka": 3487,
      "spatial": 3488,
      "salomon": 3489,
      "tree": 3490,
      "guhindura": 3491,
      "1000": 3492,
      "mugihugu": 3493,
      "mugera": 3494,
      "yatsinze": 3495,
      "muntu": 3496,
      "yavuye": 3497,
      "abagizi": 3498,
      "abagwanyi": 3499,
      "umurundi": 3500,
      "planet": 3501,
      "2016": 3502,
      "madrid": 3503,
      "niyon": 3504,
      "where": 3505,
      "καλύ": 3506,
      "ард": 3507,
      "abilities": 3508,
      "exten": 3509,
      "gisirikare": 3510,
      "worth": 3511,
      "yarwanda": 3512,
      "rectangle": 3513,
      "imodoka": 3514,
      "uvuga": 3515,
      "vyose": 3516,
      "τερη": 3517,
      "abarorerezi": 3518,
      "yakomeje": 3519,
      "ποι": 3520,
      "ongera": 3521,
      "ukuntu": 3522,
      "ukunzwe": 3523,
      "kiganiro": 3524,
      "προσφ": 3525,
      "обитания": 3526,
      "agarira": 3527,
      "agaragara": 3528,
      "integer": 3529,
      "integers": 3530,
      "ubutumwa": 3531,
      "clen1": 3532,
      "clen2": 3533,
      "area1": 3534,
      "area2": 3535,
      "раститель": 3536,
      "subscriptOne": 3537,
      "enyesha": 3538,
      "(!(": 3539,
      "+=(": 3540,
      "????": 3541,
      "Star": 3542,
      "yahishuye": 3543,
      "yashy": 3544,
      "вид": 3545,
      "memmove": 3546,
      "POP": 3547,
      "durch": 3548,
      "float": 3549,
      "glob": 3550,
      "kipe": 3551,
      "kiretse": 3552,
      "radi": 3553,
      "ufite": 3554,
      "variables": 3555,
      "wrap": 3556,
      "кор": 3557,
      "akoreshwa": 3558,
      "network": 3559,
      "follow": 3560,
      "ails": 3561,
      "njyewe": 3562,
      "rusama": 3563,
      "yahawe": 3564,
      "yahaye": 3565,
      "μας": 3566,
      "atumye": 3567,
      "simul": 3568,
      "icyorezo": 3569,
      "ikinyamakuru": 3570,
      "oboye": 3571,
      "optimal": 3572,
      "createMulti": 3573,
      "playerName": 3574,
      "Sum_dig": 3575,
      "Sum_of_Dig": 3576,
      "Loop": 3577,
      "RAY": 3578,
      "average": 3579,
      "coronavir": 3580,
      "function": 3581,
      "r1_t": 3582,
      "r2_t": 3583,
      "ruhande": 3584,
      "yabaye": 3585,
      "zidane": 3586,
      "Δημο": 3587,
      "attempt": 3588,
      "studi": 3589,
      "andikwa": 3590,
      "leading": 3591,
      "akarorero": 3592,
      "akamaro": 3593,
      "convert": 3594,
      "majwi": 3595,
      "tribut": 3596,
      "разви": 3597,
      "растения": 3598,
      "morphological": 3599,
      "Картер": 3600,
      "Hexadecimal": 3601,
      "Keshi": 3602,
      "SimpleInterest": 3603,
      "binarySear": 3604,
      "cumi": 3605,
      "freddie": 3606,
      "katolika": 3607,
      "kukambara": 3608,
      "mvamakungu": 3609,
      "mission": 3610,
      "musitanter": 3611,
      "mashure": 3612,
      "xorenc": 3613,
      "года": 3614,
      "urarw": 3615,
      "statistical": 3616,
      "ambura": 3617,
      "intwaro": 3618,
      "actually": 3619,
      "champions": 3620,
      "potential": 3621,
      "gebiete": 3622,
      "guhohotera": 3623,
      "gufatwa": 3624,
      "ntabwo": 3625,
      "brisket": 3626,
      "performs": 3627,
      "English": 3628,
      "yamamaza": 3629,
      "rawfish": 3630,
      "demonstr": 3631,
      "открыти": 3632,
      "ποδο": 3633,
      "technology": 3634,
      "ibisobanuro": 3635,
      "observations": 3636,
      "dwarfs": 3637,
      "investigate": 3638,
      "ARRAY": 3639,
      "FLT_": 3640,
      "Kelvin": 3641,
      "Learning": 3642,
      "MTN": 3643,
      "Music": 3644,
      "Potter": 3645,
      "Snape": 3646,
      "Steeti": 3647,
      "Wasserschutz": 3648,
      "ausge": 3649,
      "bubanza": 3650,
      "byose": 3651,
      "egburu": 3652,
      "jonathan": 3653,
      "kylian": 3654,
      "kidebuye": 3655,
      "labeling": 3656,
      "package": 3657,
      "safari": 3658,
      "sensit": 3659,
      "vention": 3660,
      "αστικ": 3661,
      "егип": 3662,
      "environments": 3663,
      "urwaruka": 3664,
      "umogi": 3665,
      "tobacco": 3666,
      "agateganyo": 3667,
      "inguvu": 3668,
      "properties": 3669,
      "inductive": 3670,
      "people": 3671,
      "features": 3672,
      "Netflix": 3673,
      "multimodal": 3674,
      "καλύτερη": 3675,
      "createMultiD": 3676,
      "coronavirus": 3677,
      "binarySearch": 3678,
      "musitanteri": 3679,
      "!!": 3680,
      "!='": 3681,
      "\");": 3682,
      "(&": 3683,
      "))": 3684,
      "*));\\": 3685,
      ",&": 3686,
      ",*": 3687,
      ".\"": 3688,
      "/=": 3689,
      "22": 3690,
      "200": 3691,
      "32": 3692,
      "4f": 3693,
      "62": 3694,
      "64": 3695,
      "90": 3696,
      ":\");\\": 3697,
      "AS": 3698,
      "Ak": 3699,
      "Au": 3700,
      "Are": 3701,
      "All": 3702,
      "By": 3703,
      "Back": 3704,
      "CO": 3705,
      "Ca": 3706,
      "Ch": 3707,
      "Che": 3708,
      "Car": 3709,
      "Cho": 3710,
      "CT_": 3711,
      "CPOP": 3712,
      "DE": 3713,
      "Dark": 3714,
      "DELE": 3715,
      "ED": 3716,
      "El": 3717,
      "Ear": 3718,
      "Ekwere": 3719,
      "Fun": 3720,
      "Fah": 3721,
      "Für": 3722,
      "Gọ": 3723,
      "Grad": 3724,
      "Hof": 3725,
      "Hol": 3726,
      "ID": 3727,
      "Ig": 3728,
      "Ih": 3729,
      "Ju": 3730,
      "L_": 3731,
      "Les": 3732,
      "LFA": 3733,
      "Language": 3734,
      "Mus": 3735,
      "Mind": 3736,
      "Mod": 3737,
      "Most": 3738,
      "Our": 3739,
      "Pos": 3740,
      "SD": 3741,
      "ST": 3742,
      "Sü": 3743,
      "Sch": 3744,
      "Sails": 3745,
      "TO": 3746,
      "Tak": 3747,
      "TED": 3748,
      "VAL": 3749,
      "Wh": 3750,
      "Wir": 3751,
      "XAI": 3752,
      "[]": 3753,
      "].": 3754,
      "];": 3755,
      "]!='": 3756,
      "_node": 3757,
      "_SI": 3758,
      "air": 3759,
      "aint": 3760,
      "awe": 3761,
      "aye": 3762,
      "ayo": 3763,
      "averse": 3764,
      "ault": 3765,
      "azo": 3766,
      "ains": 3767,
      "aume": 3768,
      "bọ": 3769,
      "ban": 3770,
      "bed": 3771,
      "bim": 3772,
      "bun": 3773,
      "bul": 3774,
      "bare": 3775,
      "baba": 3776,
      "bush": 3777,
      "bora": 3778,
      "bata": 3779,
      "banye": 3780,
      "bati": 3781,
      "bij": 3782,
      "bip": 3783,
      "bafise": 3784,
      "bikombe": 3785,
      "bivugwa": 3786,
      "biciye": 3787,
      "c1": 3788,
      "c2": 3789,
      "cr": 3790,
      "car": 3791,
      "ced": 3792,
      "cah": 3793,
      "ctor": 3794,
      "care": 3795,
      "call": 3796,
      "cpc": 3797,
      "clear": 3798,
      "cpop": 3799,
      "cacu": 3800,
      "cyemezo": 3801,
      "crawfish": 3802,
      "dy": 3803,
      "din": 3804,
      "don": 3805,
      "dat": 3806,
      "dit": 3807,
      "ding": 3808,
      "dic": 3809,
      "dise": 3810,
      "dafrika": 3811,
      "dents": 3812,
      "ebe": 3813,
      "eze": 3814,
      "ekw": 3815,
      "emp": 3816,
      "each": 3817,
      "every": 3818,
      "evol": 3819,
      "file": 3820,
      "fana": 3821,
      "fite": 3822,
      "fes": 3823,
      "fication": 3824,
      "faransa": 3825,
      "gh": 3826,
      "ging": 3827,
      "gne": 3828,
      "gnit": 3829,
      "gbas": 3830,
      "grow": 3831,
      "gikor": 3832,
      "hun": 3833,
      "hind": 3834,
      "hose": 3835,
      "hara": 3836,
      "hafashwe": 3837,
      "hatung": 3838,
      "iver": 3839,
      "iable": 3840,
      "km": 3841,
      "kor": 3842,
      "kit": 3843,
      "kag": 3844,
      "kik": 3845,
      "kwa": 3846,
      "kte": 3847,
      "kind": 3848,
      "kora": 3849,
      "kiza": 3850,
      "kire": 3851,
      "kumw": 3852,
      "lr": 3853,
      "lọ": 3854,
      "ler": 3855,
      "lis": 3856,
      "ling": 3857,
      "luc": 3858,
      "lie": 3859,
      "lay": 3860,
      "live": 3861,
      "link": 3862,
      "lution": 3863,
      "ledge": 3864,
      "language": 3865,
      "large": 3866,
      "mon": 3867,
      "ming": 3868,
      "mye": 3869,
      "mig": 3870,
      "muc": 3871,
      "mel": 3872,
      "mind": 3873,
      "mate": 3874,
      "mwo": 3875,
      "mine": 3876,
      "mera": 3877,
      "mist": 3878,
      "mbo": 3879,
      "mass": 3880,
      "mubwo": 3881,
      "mark": 3882,
      "mman": 3883,
      "mikino": 3884,
      "mumwaka": 3885,
      "machine": 3886,
      "mfite": 3887,
      "ned": 3888,
      "nam": 3889,
      "nic": 3890,
      "nfor": 3891,
      "nak": 3892,
      "nwa": 3893,
      "nif": 3894,
      "nso": 3895,
      "nimb": 3896,
      "nach": 3897,
      "nico": 3898,
      "nziza": 3899,
      "nacyo": 3900,
      "nyeshyamba": 3901,
      "oug": 3902,
      "oge": 3903,
      "oke": 3904,
      "ota": 3905,
      "opend": 3906,
      "py": 3907,
      "pụ": 3908,
      "por": 3909,
      "pic": 3910,
      "pth": 3911,
      "page": 3912,
      "pport": 3913,
      "pure": 3914,
      "path": 3915,
      "pier": 3916,
      "ren": 3917,
      "rur": 3918,
      "rir": 3919,
      "ruk": 3920,
      "rap": 3921,
      "rund": 3922,
      "rud": 3923,
      "ryag": 3924,
      "rumwe": 3925,
      "rero": 3926,
      "rimwe": 3927,
      "rukundo": 3928,
      "ronic": 3929,
      "sor": 3930,
      "ssi": 3931,
      "sort": 3932,
      "smo": 3933,
      "siri": 3934,
      "sanga": 3935,
      "sity": 3936,
      "slic": 3937,
      "shengero": 3938,
      "tm": 3939,
      "ting": 3940,
      "tut": 3941,
      "tug": 3942,
      "tumwe": 3943,
      "uto": 3944,
      "ule": 3945,
      "uel": 3946,
      "uher": 3947,
      "uzwe": 3948,
      "uhab": 3949,
      "uwah": 3950,
      "uwitwa": 3951,
      "van": 3952,
      "ven": 3953,
      "vice": 3954,
      "wu": 3955,
      "ww": 3956,
      "wish": 3957,
      "ware": 3958,
      "wies": 3959,
      "wako": 3960,
      "winshi": 3961,
      "yan": 3962,
      "yen": 3963,
      "yir": 3964,
      "yom": 3965,
      "yare": 3966,
      "yuko": 3967,
      "yuma": 3968,
      "yati": 3969,
      "yene": 3970,
      "zin": 3971,
      "zen": 3972,
      "zag": 3973,
      "zic": 3974,
      "zik": 3975,
      "zira": 3976,
      "zana": 3977,
      "zose": 3978,
      "zero": 3979,
      "zindi": 3980,
      "zishobora": 3981,
      "||": 3982,
      "äche": 3983,
      "ΐου": 3984,
      "Βο": 3985,
      "ΕΣ": 3986,
      "ΕΛΙ": 3987,
      "Λα": 3988,
      "ΜΙ": 3989,
      "Με": 3990,
      "Προ": 3991,
      "ΤΗ": 3992,
      "ΤΟ": 3993,
      "ΨΩ": 3994,
      "άμ": 3995,
      "άρ": 3996,
      "άνη": 3997,
      "ήση": 3998,
      "ίηση": 3999,
      "ακ": 4000,
      "αλ": 4001,
      "αφ": 4002,
      "δη": 4003,
      "δυ": 4004,
      "εμ": 4005,
      "επ": 4006,
      "εικ": 4007,
      "εφα": 4008,
      "ητο": 4009,
      "ητικ": 4010,
      "ηρε": 4011,
      "ιά": 4012,
      "ιο": 4013,
      "ις": 4014,
      "κνη": 4015,
      "λίδ": 4016,
      "μό": 4017,
      "μικ": 4018,
      "ντ": 4019,
      "ξη": 4020,
      "πρ": 4021,
      "πηρε": 4022,
      "ρώ": 4023,
      "ρμο": 4024,
      "ρίου": 4025,
      "ρήση": 4026,
      "τω": 4027,
      "ταξινόμηση": 4028,
      "τέχ": 4029,
      "υστ": 4030,
      "υπηρε": 4031,
      "φιλ": 4032,
      "χρήση": 4033,
      "ϊκή": 4034,
      "ός": 4035,
      "Гов": 4036,
      "Лон": 4037,
      "Ту": 4038,
      "Чел": 4039,
      "ам": 4040,
      "ает": 4041,
      "ающ": 4042,
      "анг": 4043,
      "би": 4044,
      "ву": 4045,
      "ге": 4046,
      "гр": 4047,
      "до": 4048,
      "дон": 4049,
      "дву": 4050,
      "еб": 4051,
      "ег": 4052,
      "еол": 4053,
      "жд": 4054,
      "за": 4055,
      "ие": 4056,
      "ик": 4057,
      "ис": 4058,
      "ион": 4059,
      "ими": 4060,
      "ицы": 4061,
      "ков": 4062,
      "клу": 4063,
      "ль": 4064,
      "лё": 4065,
      "мног": 4066,
      "ну": 4067,
      "нх": 4068,
      "нных": 4069,
      "ор": 4070,
      "ос": 4071,
      "пу": 4072,
      "пы": 4073,
      "пер": 4074,
      "ре": 4075,
      "ру": 4076,
      "ров": 4077,
      "си": 4078,
      "сов": 4079,
      "тон": 4080,
      "уард": 4081,
      "хеол": 4082,
      "чные": 4083,
      "ько": 4084,
      "яни": 4085,
      "яющ": 4086,
      "ịhe": 4087,
      "ịdị": 4088,
      "ọmp": 4089,
      "ụkw": 4090,
      "ụlọ": 4091,
      "々な": 4092,
      "ある": 4093,
      "いない": 4094,
      "おり": 4095,
      "お子": 4096,
      "お願": 4097,
      "が発生": 4098,
      "こと": 4099,
      "ご確": 4100,
      "しば": 4101,
      "せん": 4102,
      "って": 4103,
      "でき": 4104,
      "です": 4105,
      "とも": 4106,
      "によ": 4107,
      "の系": 4108,
      "ません": 4109,
      "ること": 4110,
      "を取": 4111,
      "イト": 4112,
      "サイト": 4113,
      "ット": 4114,
      "ロッ": 4115,
      "一緒": 4116,
      "作業": 4117,
      "別途": 4118,
      "士号": 4119,
      "学的": 4120,
      "払い": 4121,
      "支払い": 4122,
      "新世": 4123,
      "日本": 4124,
      "様の": 4125,
      "様々な": 4126,
      "言語": 4127,
      "ini": 4128,
      "inj": 4129,
      "inal": 4130,
      "ince": 4131,
      "inzi": 4132,
      "inama": 4133,
      "inform": 4134,
      "incre": 4135,
      "inating": 4136,
      "invalid": 4137,
      "invol": 4138,
      "inyeshyamba": 4139,
      "inyongera": 4140,
      "inzira": 4141,
      "heit": 4142,
      "heka": 4143,
      "hejuru": 4144,
      "eren": 4145,
      "erre": 4146,
      "erere": 4147,
      "eria": 4148,
      "erura": 4149,
      "eranije": 4150,
      "erature": 4151,
      "erukira": 4152,
      "erambere": 4153,
      "ante": 4154,
      "anzi": 4155,
      "anzo": 4156,
      "anijwe": 4157,
      "theor": 4158,
      "oni": 4159,
      "onyine": 4160,
      "orag": 4161,
      "orwa": 4162,
      "orbit": 4163,
      "arar": 4164,
      "arab": 4165,
      "arand": 4166,
      "arac": 4167,
      "aration": 4168,
      "arinda": 4169,
      "ariro": 4170,
      "aragara": 4171,
      "aramu": 4172,
      "aragar": 4173,
      "arutse": 4174,
      "arasi": 4175,
      "atọ": 4176,
      "atik": 4177,
      "atom": 4178,
      "atmo": 4179,
      "atonda": 4180,
      "atanguye": 4181,
      "attribut": 4182,
      "enco": 4183,
      "ense": 4184,
      "enke": 4185,
      "reso": 4186,
      "ress": 4187,
      "really": 4188,
      "reduc": 4189,
      "repe": 4190,
      "repub": 4191,
      "iton": 4192,
      "ital": 4193,
      "itang": 4194,
      "itora": 4195,
      "itung": 4196,
      "itable": 4197,
      "itaho": 4198,
      "itanduk": 4199,
      "itorero": 4200,
      "itariki": 4201,
      "itori": 4202,
      "isanzwe": 4203,
      "isirikare": 4204,
      "isigura": 4205,
      "isoko": 4206,
      "decl": 4207,
      "demok": 4208,
      "desp": 4209,
      "degre": 4210,
      "aso": 4211,
      "asso": 4212,
      "asure": 4213,
      "assum": 4214,
      "asọmp": 4215,
      "align": 4216,
      "urwe": 4217,
      "uriza": 4218,
      "uruka": 4219,
      "urano": 4220,
      "urwanda": 4221,
      "urukundo": 4222,
      "urumogi": 4223,
      "cope": 4224,
      "cook": 4225,
      "cognit": 4226,
      "ird": 4227,
      "irira": 4228,
      "irindwi": 4229,
      "irradi": 4230,
      "sich": 4231,
      "sizi": 4232,
      "sification": 4233,
      "stion": 4234,
      "stret": 4235,
      "stem": 4236,
      "stable": 4237,
      "stance": 4238,
      "stuf": 4239,
      "amab": 4240,
      "amag": 4241,
      "amiye": 4242,
      "amwo": 4243,
      "ample": 4244,
      "amenya": 4245,
      "amirizi": 4246,
      "abah": 4247,
      "abone": 4248,
      "abari": 4249,
      "abitab": 4250,
      "abirab": 4251,
      "abunga": 4252,
      "umen": 4253,
      "umber": 4254,
      "umuko": 4255,
      "umenyereza": 4256,
      "umucuruzi": 4257,
      "too": 4258,
      "toke": 4259,
      "toho": 4260,
      "tool": 4261,
      "today": 4262,
      "ago": 4263,
      "aged": 4264,
      "aging": 4265,
      "agac": 4266,
      "agom": 4267,
      "agwa": 4268,
      "agihugu": 4269,
      "aguma": 4270,
      "agba": 4271,
      "aganira": 4272,
      "agomba": 4273,
      "agerage": 4274,
      "andid": 4275,
      "intumwa": 4276,
      "intell": 4277,
      "rober": 4278,
      "ross": 4279,
      "robu": 4280,
      "sec": 4281,
      "set": 4282,
      "sequ": 4283,
      "self": 4284,
      "less": 4285,
      "level": 4286,
      "ingwa": 4287,
      "ingwara": 4288,
      "imye": 4289,
      "image": 4290,
      "impro": 4291,
      "impre": 4292,
      "imwo": 4293,
      "iments": 4294,
      "imitsindo": 4295,
      "uno": 4296,
      "unye": 4297,
      "ungen": 4298,
      "unzwe": 4299,
      "unks": 4300,
      "ubi": 4301,
      "ubub": 4302,
      "ubuk": 4303,
      "ubus": 4304,
      "ubah": 4305,
      "ubira": 4306,
      "ubita": 4307,
      "ubushikiranganji": 4308,
      "weak": 4309,
      "wever": 4310,
      "weza": 4311,
      "week": 4312,
      "uth": 4313,
      "uti": 4314,
      "utari": 4315,
      "yeguk": 4316,
      "ics": 4317,
      "iche": 4318,
      "icya": 4319,
      "ications": 4320,
      "icishije": 4321,
      "icyemezo": 4322,
      "ikig": 4323,
      "ikiye": 4324,
      "ikora": 4325,
      "ikomeye": 4326,
      "ikanywa": 4327,
      "fore": 4328,
      "format": 4329,
      "akir": 4330,
      "akora": 4331,
      "akina": 4332,
      "akinyi": 4333,
      "akomeza": 4334,
      "akụkọ": 4335,
      "ugo": 4336,
      "ugire": 4337,
      "ugishije": 4338,
      "ugutu": 4339,
      "ugariro": 4340,
      "ugirira": 4341,
      "net": 4342,
      "nesses": 4343,
      "acy": 4344,
      "access": 4345,
      "aces": 4346,
      "acts": 4347,
      "aches": 4348,
      "accep": 4349,
      "across": 4350,
      "adi": 4351,
      "adults": 4352,
      "igen": 4353,
      "igenga": 4354,
      "igating": 4355,
      "igifaransa": 4356,
      "igikorwa": 4357,
      "igisirikare": 4358,
      "igikiye": 4359,
      "thday": 4360,
      "vered": 4361,
      "enters": 4362,
      "entire": 4363,
      "siga": 4364,
      "chị": 4365,
      "ching": 4366,
      "chụrụ": 4367,
      "chunks": 4368,
      "ukaba": 4369,
      "ukanye": 4370,
      "ukaraba": 4371,
      "signal": 4372,
      "signific": 4373,
      "usa": 4374,
      "usanga": 4375,
      "dire": 4376,
      "direct": 4377,
      "differ": 4378,
      "oms": 4379,
      "terre": 4380,
      "waye": 4381,
      "wasn": 4382,
      "izing": 4383,
      "izera": 4384,
      "izamu": 4385,
      "erekana": 4386,
      "poor": 4387,
      "shure": 4388,
      "shingiro": 4389,
      "ils": 4390,
      "ility": 4391,
      "ilip": 4392,
      "conf": 4393,
      "constr": 4394,
      "convention": 4395,
      "consequ": 4396,
      "geister": 4397,
      "gela": 4398,
      "apy": 4399,
      "appl": 4400,
      "application": 4401,
      "iva": 4402,
      "iving": 4403,
      "ivile": 4404,
      "ulika": 4405,
      "gose": 4406,
      "teur": 4407,
      "tect": 4408,
      "tell": 4409,
      "ibir": 4410,
      "ible": 4411,
      "ibone": 4412,
      "ibiza": 4413,
      "ibuga": 4414,
      "ibiro": 4415,
      "ibitego": 4416,
      "elder": 4417,
      "priv": 4418,
      "afata": 4419,
      "ahu": 4420,
      "ahira": 4421,
      "ahiye": 4422,
      "ahandi": 4423,
      "ahurira": 4424,
      "ahabona": 4425,
      "ahindura": 4426,
      "ahagije": 4427,
      "ahagaragara": 4428,
      "ahurano": 4429,
      "iety": 4430,
      "profes": 4431,
      "mai": 4432,
      "mail": 4433,
      "idak": 4434,
      "iddit": 4435,
      "idini": 4436,
      "idikanywa": 4437,
      "ishaka": 4438,
      "ishinga": 4439,
      "ishirahamwe": 4440,
      "uefa": 4441,
      "avo": 4442,
      "avor": 4443,
      "avuk": 4444,
      "avel": 4445,
      "avail": 4446,
      "ameter": 4447,
      "butche": 4448,
      "butumwa": 4449,
      "irayo": 4450,
      "sche": 4451,
      "scal": 4452,
      "scient": 4453,
      "close": 4454,
      "class": 4455,
      "clau": 4456,
      "ayandi": 4457,
      "plz": 4458,
      "ihari": 4459,
      "ihiganwa": 4460,
      "soll": 4461,
      "berg": 4462,
      "byatumye": 4463,
      "byante": 4464,
      "indwara": 4465,
      "predic": 4466,
      "angiza": 4467,
      "mewe": 4468,
      "metut": 4469,
      "measure": 4470,
      "what": 4471,
      "dera": 4472,
      "oneza": 4473,
      "\",*(": 4474,
      "areas": 4475,
      "abaye": 4476,
      "abazi": 4477,
      "abayobo": 4478,
      "abazwa": 4479,
      "abajejwe": 4480,
      "lol": 4481,
      "lock": 4482,
      "lows": 4483,
      "look": 4484,
      "nda": 4485,
      "ndu": 4486,
      "ndụ": 4487,
      "ndik": 4488,
      "ndwi": 4489,
      "ndaha": 4490,
      "nduw": 4491,
      "therapy": 4492,
      "oresho": 4493,
      "oresha": 4494,
      "ctiv": 4495,
      "ctra": 4496,
      "ctype": 4497,
      "tual": 4498,
      "kwifat": 4499,
      "kwandika": 4500,
      "kwandikwa": 4501,
      "kwizera": 4502,
      "uses": 4503,
      "useful": 4504,
      "portun": 4505,
      "wari": 4506,
      "ashije": 4507,
      "ashizwe": 4508,
      "ashatse": 4509,
      "uruza": 4510,
      "illaume": 4511,
      "penal": 4512,
      "pengela": 4513,
      "peci": 4514,
      "comb": 4515,
      "comput": 4516,
      "commun": 4517,
      "compon": 4518,
      "compare": 4519,
      "burya": 4520,
      "burimb": 4521,
      "dos": 4522,
      "density": 4523,
      "hts": 4524,
      "nyifat": 4525,
      "wosanga": 4526,
      "itswe": 4527,
      "itsinda": 4528,
      "try": 4529,
      "trie": 4530,
      "true": 4531,
      "trast": 4532,
      "trust": 4533,
      "tried": 4534,
      "traverse": 4535,
      "travel": 4536,
      "muz": 4537,
      "musi": 4538,
      "must": 4539,
      "muto": 4540,
      "muvy": 4541,
      "mupira": 4542,
      "music": 4543,
      "nawe": 4544,
      "Inde": 4545,
      "Input": 4546,
      "Information": 4547,
      "kele": 4548,
      "iteze": 4549,
      "those": 4550,
      "hanze": 4551,
      "ferdin": 4552,
      "guheka": 4553,
      "gusiga": 4554,
      "guillaume": 4555,
      "quiddit": 4556,
      "cheta": 4557,
      "matches": 4558,
      "mitwe": 4559,
      "mitigating": 4560,
      "amazi": 4561,
      "akaye": 4562,
      "193": 4563,
      "199": 4564,
      "nko": 4565,
      "nkuko": 4566,
      "ises": 4567,
      "cyorezo": 4568,
      "cyonyine": 4569,
      "curo": 4570,
      "ntah": 4571,
      "ntara": 4572,
      "lescope": 4573,
      "sud": 4574,
      "support": 4575,
      "istiri": 4576,
      "imbibe": 4577,
      "imbaraga": 4578,
      "imboneza": 4579,
      "especi": 4580,
      "current": 4581,
      "otherwise": 4582,
      "artificial": 4583,
      "foc": 4584,
      "fopen": 4585,
      "focus": 4586,
      "anyije": 4587,
      "iostream": 4588,
      "diogne": 4589,
      "angaza": 4590,
      "distrib": 4591,
      "emman": 4592,
      "++){\\": 4593,
      "abanuka": 4594,
      "ungika": 4595,
      "ungabunga": 4596,
      "ikiringo": 4597,
      "Assigns": 4598,
      "bakuru": 4599,
      "bakina": 4600,
      "bakorera": 4601,
      "undisha": 4602,
      "frag": 4603,
      "kuza": 4604,
      "kuva": 4605,
      "approaches": 4606,
      "umuziki": 4607,
      "horo": 4608,
      "стеб": 4609,
      "bahe": 4610,
      "bayo": 4611,
      "flush": 4612,
      "irego": 4613,
      "irezo": 4614,
      "kubona": 4615,
      "kubungabunga": 4616,
      "opin": 4617,
      "opportun": 4618,
      "yagiriye": 4619,
      "wards": 4620,
      "harimo": 4621,
      "harimwo": 4622,
      "kugura": 4623,
      "kugwanya": 4624,
      "boil": 4625,
      "gusambura": 4626,
      "viders": 4627,
      "ние": 4628,
      "ний": 4629,
      "ницы": 4630,
      "sionnel": 4631,
      "gukorera": 4632,
      "gukurik": 4633,
      "gukomeza": 4634,
      "gukorana": 4635,
      "gukundisha": 4636,
      "рают": 4637,
      "domain": 4638,
      "domains": 4639,
      "dominating": 4640,
      "murenge": 4641,
      "ουμε": 4642,
      "endl": 4643,
      "ending": 4644,
      "bagabo": 4645,
      "bagomba": 4646,
      "bagenzi": 4647,
      "mbarush": 4648,
      "mbusa": 4649,
      "yiy": 4650,
      "decre": 4651,
      "****": 4652,
      "buzima": 4653,
      "buffer": 4654,
      "buhoro": 4655,
      "batari": 4656,
      "kurya": 4657,
      "kurungika": 4658,
      "rwabo": 4659,
      "yamaho": 4660,
      "yamiriza": 4661,
      "yamabanga": 4662,
      "ubuzima": 4663,
      "ubutoho": 4664,
      "structs": 4665,
      "calcul": 4666,
      "effic": 4667,
      "minim": 4668,
      "INVAL": 4669,
      "iji": 4670,
      "umunsi": 4671,
      "umunyamakuru": 4672,
      "umunyamabanga": 4673,
      "umugore": 4674,
      "umugera": 4675,
      "umugambi": 4676,
      "interaction": 4677,
      "VID": 4678,
      "lichen": 4679,
      "rocky": 4680,
      "continuous": 4681,
      "gutera": 4682,
      "gutanga": 4683,
      "gutanduk": 4684,
      "gutangura": 4685,
      "gutakaza": 4686,
      "outflow": 4687,
      "eneye": 4688,
      "umwigisha": 4689,
      "auf": 4690,
      "auto": 4691,
      "bituma": 4692,
      "medical": 4693,
      "нов": 4694,
      "онча": 4695,
      "initarr": 4696,
      "initScale": 4697,
      "achinwa": 4698,
      "ndayishimye": 4699,
      "barenga": 4700,
      "birik": 4701,
      "birthday": 4702,
      "gushimira": 4703,
      "gushikiriza": 4704,
      "ody": 4705,
      "treme": 4706,
      "treated": 4707,
      "ινητο": 4708,
      "imaze": 4709,
      "guhung": 4710,
      "guhita": 4711,
      "stack_min": 4712,
      "stack_init": 4713,
      "stack_max": 4714,
      "stack_pop": 4715,
      "stack_push": 4716,
      ");}\\": 4717,
      "bwabo": 4718,
      "bwinshi": 4719,
      "dual": 4720,
      "dufat": 4721,
      "mugambwe": 4722,
      "mugifaransa": 4723,
      "ola": 4724,
      "yatangaje": 4725,
      "babiri": 4726,
      "munyaka": 4727,
      "munota": 4728,
      "танх": 4729,
      "abagize": 4730,
      "ikorera": 4731,
      "numerical": 4732,
      "2020": 4733,
      "crew": 4734,
      "madu": 4735,
      "niyom": 4736,
      "nabakinyi": 4737,
      "μοποι": 4738,
      "μοφιλ": 4739,
      "археол": 4740,
      "еляющ": 4741,
      "default": 4742,
      "akoze": 4743,
      "akozwe": 4744,
      "prevent": 4745,
      "164": 4746,
      "FALFA": 4747,
      "centre": 4748,
      "fdlr": 4749,
      "hasi": 4750,
      "likely": 4751,
      "spectra": 4752,
      "yabuze": 4753,
      "yabyak": 4754,
      "yabwiye": 4755,
      "----": 4756,
      "Holy": 4757,
      "However": 4758,
      "background": 4759,
      "gatandatu": 4760,
      "older": 4761,
      "paris": 4762,
      "parsec": 4763,
      "parameter": 4764,
      "yishimye": 4765,
      "личные": 4766,
      "отми": 4767,
      "inyigisho": 4768,
      "itaine": 4769,
      "abarenga": 4770,
      "abakinyi": 4771,
      "abakinnyi": 4772,
      "abakiris": 4773,
      "things": 4774,
      "RECT_": 4775,
      "elem": 4776,
      "iwu": 4777,
      "namespace": 4778,
      "uwundi": 4779,
      "yakur": 4780,
      "ιας": 4781,
      "ποίηση": 4782,
      "inkuru": 4783,
      "inkino": 4784,
      "deliver": 4785,
      "processes": 4786,
      "Numbers": 4787,
      "bamut": 4788,
      "bamenyeshamakuru": 4789,
      "bamwungirije": 4790,
      "kigarama": 4791,
      "myself": 4792,
      "myugariro": 4793,
      "water": 4794,
      "wataram": 4795,
      "προς": 4796,
      "προγρ": 4797,
      "σελίδ": 4798,
      "обницы": 4799,
      "ongoye": 4800,
      "remchars": 4801,
      "remcnks": 4802,
      "ubutunzi": 4803,
      "transform": 4804,
      "transmission": 4805,
      "amajwi": 4806,
      "baciye": 4807,
      "bahung": 4808,
      "bahurira": 4809,
      "capiton": 4810,
      "capitaine": 4811,
      "great": 4812,
      "greed": 4813,
      "ngaha": 4814,
      "ngingo": 4815,
      "wanisho": 4816,
      "yahise": 4817,
      "yahavuye": 4818,
      "τος": 4819,
      "related": 4820,
      "relative": 4821,
      "itself": 4822,
      "standard": 4823,
      "pendent": 4824,
      "treatments": 4825,
      "Reisen": 4826,
      "azaba": 4827,
      "azoba": 4828,
      "bashoboye": 4829,
      "morally": 4830,
      "mutex": 4831,
      "mutangana": 4832,
      "write": 4833,
      "νοητικ": 4834,
      "земле": 4835,
      "землё": 4836,
      "herekeje": 4837,
      "impuz": 4838,
      "impact": 4839,
      "akoresheje": 4840,
      "power": 4841,
      "models": 4842,
      "yongere": 4843,
      "folgen": 4844,
      "follows": 4845,
      "knowledge": 4846,
      "types": 4847,
      "Blacklist": 4848,
      "Conver": 4849,
      "Conclusion": 4850,
      "Contrast": 4851,
      "bigera": 4852,
      "mmadu": 4853,
      "rusange": 4854,
      "sample": 4855,
      "swapping": 4856,
      "yiga": 4857,
      "ματος": 4858,
      "ριο": 4859,
      "вест": 4860,
      "венных": 4861,
      "изда": 4862,
      "как": 4863,
      "detection": 4864,
      "amarahurano": 4865,
      "amashengero": 4866,
      "amasasu": 4867,
      "utional": 4868,
      "icyizere": 4869,
      "constant": 4870,
      "obozi": 4871,
      "kwuo": 4872,
      "optical": 4873,
      "evaritse": 4874,
      "playerPos": 4875,
      "CNNs": 4876,
      "galaxies": 4877,
      "Program": 4878,
      "bisanzwe": 4879,
      "dragon": 4880,
      "gikenye": 4881,
      "kwezi": 4882,
      "magambo": 4883,
      "nkeji": 4884,
      "pascal": 4885,
      "pasitori": 4886,
      "rusizi": 4887,
      "system": 4888,
      "take": 4889,
      "Δημ": 4890,
      "μένη": 4891,
      "μένο": 4892,
      "παρ": 4893,
      "παιδ": 4894,
      "ρησι": 4895,
      "σιών": 4896,
      "при": 4897,
      "ский": 4898,
      "attempts": 4899,
      "recently": 4900,
      "irushwa": 4901,
      "studio": 4902,
      "andikira": 4903,
      "programming": 4904,
      "ishyura": 4905,
      "checkAnagram": 4906,
      "kuzam": 4907,
      "kuzaba": 4908,
      "различные": 4909,
      "растений": 4910,
      "morphology": 4911,
      "Multiplication": 4912,
      "Картера": 4913,
      "understanding": 4914,
      "ALFALFA": 4915,
      "CALL": 4916,
      "German": 4917,
      "Germany": 4918,
      "Smoked": 4919,
      "Smoking": 4920,
      "equal": 4921,
      "gitugutu": 4922,
      "linear": 4923,
      "mirongo": 4924,
      "natural": 4925,
      "rutonde": 4926,
      "tubam": 4927,
      "yafashe": 4928,
      "zitandukanye": 4929,
      "βάθμ": 4930,
      "летних": 4931,
      "часть": 4932,
      "erageza": 4933,
      "residents": 4934,
      "replchars": 4935,
      "replcnks": 4936,
      "asubira": 4937,
      "asubiza": 4938,
      "abanyarwanda": 4939,
      "umviriza": 4940,
      "imising": 4941,
      "ikoze": 4942,
      "ukuri": 4943,
      "proble": 4944,
      "clumpiness": 4945,
      "society": 4946,
      "presented": 4947,
      "000円": 4948,
      "interpret": 4949,
      "initialization": 4950,
      "таких": 4951,
      "также": 4952,
      "detecting": 4953,
      "1名の": 4954,
      "Factors": 4955,
      "Meat": 4956,
      "Season": 4957,
      "String": 4958,
      "With": 4959,
      "biteg": 4960,
      "certain": 4961,
      "daily": 4962,
      "dirent": 4963,
      "einer": 4964,
      "fficient": 4965,
      "kroenke": 4966,
      "killers": 4967,
      "mumirwi": 4968,
      "mushasha": 4969,
      "misiyoni": 4970,
      "nusing": 4971,
      "randomization": 4972,
      "tinho": 4973,
      "tableau": 4974,
      "visual": 4975,
      "yanditswe": 4976,
      "έρηση": 4977,
      "από": 4978,
      "είτε": 4979,
      "ενός": 4980,
      "σας": 4981,
      "близ": 4982,
      "сезона": 4983,
      "травяни": 4984,
      "いたします": 4985,
      "大学で": 4986,
      "insights": 4987,
      "inzozi": 4988,
      "isabune": 4989,
      "determine": 4990,
      "cooling": 4991,
      "amategeko": 4992,
      "agbịdị": 4993,
      "interest": 4994,
      "legs": 4995,
      "unyura": 4996,
      "concepts": 4997,
      "connections": 4998,
      "strcmp": 4999,
      "strengths": 5000,
      "textual": 5001,
      "ibikoresho": 5002,
      "promoted": 5003,
      "obtained": 5004,
      "scenes": 5005,
      "classification": 5006,
      "iharanira": 5007,
      "ihamagarira": 5008,
      "locations": 5009,
      "thermal": 5010,
      "kwiyamiriza": 5011,
      "retrieval": 5012,
      "existing": 5013,
      "experiments": 5014,
      "training": 5015,
      "muhabura": 5016,
      "quickly": 5017,
      "hours": 5018,
      "umusivile": 5019,
      "став": 5020,
      "niyonzima": 5021,
      "extended": 5022,
      "yashyize": 5023,
      "виды": 5024,
      "globally": 5025,
      "following": 5026,
      "simulations": 5027,
      "Δημοτικ": 5028,
      "studies": 5029,
      "развив": 5030,
      "championsleague": 5031,
      "demonstrate": 5032,
      "ποδοκνη": 5033,
      "ARRAY_SI": 5034,
      "FLT_MAX": 5035,
      "Wasserschutzgebiete": 5036,
      "ausgewies": 5037,
      "sensitivity": 5038,
      "αστικού": 5039,
      "египтол": 5040,
      "Audio": 5041,
      "COVID": 5042,
      "Cheta": 5043,
      "DELETED": 5044,
      "Eltern": 5045,
      "Earth": 5046,
      "Ekweremadu": 5047,
      "Function": 5048,
      "Fahren": 5049,
      "Igbo": 5050,
      "July": 5051,
      "L_0": 5052,
      "Leserre": 5053,
      "MusCALL": 5054,
      "Südafrika": 5055,
      "Schule": 5056,
      "Taking": 5057,
      "]!='\\": 5058,
      "awesome": 5059,
      "bunyoni": 5060,
      "banyeshure": 5061,
      "bijanye": 5062,
      "empty": 5063,
      "gikorane": 5064,
      "hunter": 5065,
      "hatungimana": 5066,
      "lished": 5067,
      "month": 5068,
      "melody": 5069,
      "mubwoko": 5070,
      "mmanụ": 5071,
      "nimbona": 5072,
      "ouganda": 5073,
      "opendir": 5074,
      "pụta": 5075,
      "porter": 5076,
      "pthread": 5077,
      "purely": 5078,
      "pierre": 5079,
      "rapid": 5080,
      "smoke": 5081,
      "uhaburarw": 5082,
      "uwahahiye": 5083,
      "yatiwe": 5084,
      "Βοΐου": 5085,
      "ΕΛΙΑ": 5086,
      "Λαϊκή": 5087,
      "ΨΩΜΙ": 5088,
      "άμματος": 5089,
      "ακινητο": 5090,
      "δημοφιλ": 5091,
      "εικαστικού": 5092,
      "εφαρμο": 5093,
      "μικής": 5094,
      "πρό": 5095,
      "των": 5096,
      "τέχνη": 5097,
      "υστέρηση": 5098,
      "υπηρεσιών": 5099,
      "Лондон": 5100,
      "Тутанх": 5101,
      "амона": 5102,
      "ающих": 5103,
      "гробницы": 5104,
      "двулетних": 5105,
      "ковицы": 5106,
      "клуб": 5107,
      "お子様の": 5108,
      "お願い": 5109,
      "ご確認": 5110,
      "の系統": 5111,
      "ることが": 5112,
      "一緒に": 5113,
      "学的には": 5114,
      "theories": 5115,
      "orbiting": 5116,
      "aranduye": 5117,
      "atmosp": 5118,
      "resolution": 5119,
      "reducing": 5120,
      "repubulika": 5121,
      "declaration": 5122,
      "demokarasi": 5123,
      "despite": 5124,
      "degree": 5125,
      "associ": 5126,
      "asọmpị": 5127,
      "alignment": 5128,
      "cookies": 5129,
      "stretching": 5130,
      "stuff": 5131,
      "amaguru": 5132,
      "abitabiriye": 5133,
      "abirabure": 5134,
      "umbero": 5135,
      "umukozi": 5136,
      "agaciro": 5137,
      "agerageje": 5138,
      "intelligence": 5139,
      "robertinho": 5140,
      "robust": 5141,
      "imprecise": 5142,
      "ububasha": 5143,
      "weaknesses": 5144,
      "yegukanye": 5145,
      "significant": 5146,
      "different": 5147,
      "constraint": 5148,
      "conventional": 5149,
      "applications": 5150,
      "professionnel": 5151,
      "idikanywaho": 5152,
      "available": 5153,
      "butcher": 5154,
      "scientific": 5155,
      "claude": 5156,
      "byanteye": 5157,
      "abayoboke": 5158,
      "ndahayo": 5159,
      "nduwimana": 5160,
      "community": 5161,
      "burimbane": 5162,
      "nyifato": 5163,
      "ferdinand": 5164,
      "quidditch": 5165,
      "lescopes": 5166,
      "especially": 5167,
      "emmanuel": 5168,
      "gukurikiza": 5169,
      "mbarushimana": 5170,
      "ubutohoji": 5171,
      "efficacy": 5172,
      "INVALID": 5173,
      "gutandukana": 5174,
      "munyakazi": 5175,
      "niyomug": 5176,
      "археолог": 5177,
      "еляющими": 5178,
      "отмирают": 5179,
      "RECT_ARRAY_SI": 5180,
      "wataramiye": 5181,
      "προγράμματος": 5182,
      "σελίδα": 5183,
      "relatively": 5184,
      "νοητική": 5185,
      "землёй": 5186,
      "Contrastive": 5187,
      "playerPosition": 5188,
      "παιδιά": 5189,
      "ρησιμοποι": 5190,
      "βάθμιας": 5191,
      "травянист": 5192,
      "ποδοκνημικής": 5193,
      "ausgewiesen": 5194,
      "Fahrenheit": 5195,
      "Leserreisen": 5196,
      "ακινητοποίηση": 5197,
      "δημοφιλία": 5198,
      "εφαρμογή": 5199,
      "Тутанхамона": 5200,
      "RECT_ARRAY_SIZE": 5201,
      "!\\": 5202,
      "\"%": 5203,
      "\".": 5204,
      "#')\\": 5205,
      "%,": 5206,
      "%.": 5207,
      "')*": 5208,
      "'#')\\": 5209,
      "(;": 5210,
      "(<": 5211,
      "(\\": 5212,
      ")%": 5213,
      ")/": 5214,
      ")=": 5215,
      ")==": 5216,
      "));": 5217,
      ")))\\": 5218,
      "*\\": 5219,
      "*\");\\": 5220,
      "+'": 5221,
      ",\"\\": 5222,
      "-=": 5223,
      "..": 5224,
      ".\";\\": 5225,
      "0d": 5226,
      "1ス": 5227,
      "1レ": 5228,
      "1年": 5229,
      "21": 5230,
      "24": 5231,
      "25": 5232,
      "26": 5233,
      "28": 5234,
      "2名": 5235,
      "212": 5236,
      "3名": 5237,
      "3年": 5238,
      "340": 5239,
      "44": 5240,
      "48": 5241,
      "418": 5242,
      "50": 5243,
      "51": 5244,
      "55": 5245,
      "57": 5246,
      "512": 5247,
      "65": 5248,
      "63年": 5249,
      "70": 5250,
      "74": 5251,
      "78": 5252,
      "87": 5253,
      "890": 5254,
      "95": 5255,
      "97": 5256,
      "900": 5257,
      ":--": 5258,
      ";)\\": 5259,
      ";//": 5260,
      "=%": 5261,
      "=\\": 5262,
      ">>": 5263,
      "AC": 5264,
      "AF": 5265,
      "AN": 5266,
      "AW": 5267,
      "An": 5268,
      "Az": 5269,
      "Ade": 5270,
      "Aim": 5271,
      "Ama": 5272,
      "And": 5273,
      "Akw": 5274,
      "Augu": 5275,
      "Ava": 5276,
      "Auf": 5277,
      "ABC": 5278,
      "Agency": 5279,
      "Achụrụ": 5280,
      "Activ": 5281,
      "Agreed": 5282,
      "BE": 5283,
      "BS": 5284,
      "Ber": 5285,
      "Ben": 5286,
      "But": 5287,
      "Bere": 5288,
      "Blo": 5289,
      "Best": 5290,
      "BEN": 5291,
      "BLE": 5292,
      "BRA": 5293,
      "CR": 5294,
      "Cl": 5295,
      "Cr": 5296,
      "Cur": 5297,
      "CHE": 5298,
      "CRA": 5299,
      "Clin": 5300,
      "Crawfish": 5301,
      "Do": 5302,
      "Dä": 5303,
      "Dis": 5304,
      "Div": 5305,
      "Did": 5306,
      "Day": 5307,
      "Done": 5308,
      "Dex": 5309,
      "Data": 5310,
      "Dres": 5311,
      "Digit": 5312,
      "DIR": 5313,
      "DAS": 5314,
      "DAF": 5315,
      "EE": 5316,
      "ES": 5317,
      "Er": 5318,
      "Ein": 5319,
      "Ele": 5320,
      "Eche": 5321,
      "Eine": 5322,
      "ERE": 5323,
      "Evalu": 5324,
      "EMA": 5325,
      "Emer": 5326,
      "Even": 5327,
      "FI": 5328,
      "FO": 5329,
      "FS": 5330,
      "Fa": 5331,
      "Fl": 5332,
      "Fo": 5333,
      "Fr": 5334,
      "For": 5335,
      "Fro": 5336,
      "First": 5337,
      "Finally": 5338,
      "GW": 5339,
      "Gr": 5340,
      "Gamb": 5341,
      "Ges": 5342,
      "Guma": 5343,
      "GAS": 5344,
      "GEE": 5345,
      "HP": 5346,
      "Hab": 5347,
      "Here": 5348,
      "Hav": 5349,
      "Home": 5350,
      "Half": 5351,
      "Hause": 5352,
      "II": 5353,
      "IK": 5354,
      "Is": 5355,
      "Imo": 5356,
      "Ike": 5357,
      "Ironic": 5358,
      "IBLE": 5359,
      "ICHE": 5360,
      "JK": 5361,
      "JW": 5362,
      "Jo": 5363,
      "Jus": 5364,
      "Janu": 5365,
      "KL": 5366,
      "KV": 5367,
      "Ka": 5368,
      "Kon": 5369,
      "Kur": 5370,
      "Kam": 5371,
      "Kot": 5372,
      "Lag": 5373,
      "Lot": 5374,
      "LEN": 5375,
      "LIS": 5376,
      "Large": 5377,
      "ME": 5378,
      "Mg": 5379,
      "My": 5380,
      "Man": 5381,
      "Map": 5382,
      "May": 5383,
      "More": 5384,
      "MIN": 5385,
      "MHI": 5386,
      "Machine": 5387,
      "Muti": 5388,
      "NP": 5389,
      "Nan": 5390,
      "Ndi": 5391,
      "Nke": 5392,
      "Nwan": 5393,
      "National": 5394,
      "NBS": 5395,
      "NEMA": 5396,
      "NIBLE": 5397,
      "OF": 5398,
      "OP": 5399,
      "OS": 5400,
      "OU": 5401,
      "Oh": 5402,
      "Ok": 5403,
      "Om": 5404,
      "Or": 5405,
      "Os": 5406,
      "Oso": 5407,
      "Oje": 5408,
      "Okwu": 5409,
      "Orig": 5410,
      "OIR": 5411,
      "Orange": 5412,
      "OME": 5413,
      "PR": 5414,
      "PU": 5415,
      "Ph": 5416,
      "Pre": 5417,
      "Pus": 5418,
      "Pack": 5419,
      "Phar": 5420,
      "Popped": 5421,
      "Post": 5422,
      "Qu": 5423,
      "Ru": 5424,
      "Rü": 5425,
      "Ron": 5426,
      "Red": 5427,
      "Res": 5428,
      "Rau": 5429,
      "Random": 5430,
      "ROR": 5431,
      "Radi": 5432,
      "RIK": 5433,
      "SH": 5434,
      "SS": 5435,
      "Sh": 5436,
      "Su": 5437,
      "SÜ": 5438,
      "Sị": 5439,
      "Ser": 5440,
      "San": 5441,
      "Sub": 5442,
      "Sort": 5443,
      "Stu": 5444,
      "Sure": 5445,
      "Since": 5446,
      "TV": 5447,
      "Tr": 5448,
      "Time": 5449,
      "Tex": 5450,
      "Top": 5451,
      "Tour": 5452,
      "Tok": 5453,
      "Tong": 5454,
      "Type": 5455,
      "Taraba": 5456,
      "UK": 5457,
      "Us": 5458,
      "Uni": 5459,
      "Using": 5460,
      "USD": 5461,
      "Vie": 5462,
      "Vari": 5463,
      "Vers": 5464,
      "Vier": 5465,
      "VOIR": 5466,
      "Wo": 5467,
      "Wat": 5468,
      "Was": 5469,
      "Went": 5470,
      "Wel": 5471,
      "When": 5472,
      "Who": 5473,
      "Where": 5474,
      "Wife": 5475,
      "WIR": 5476,
      "WAN": 5477,
      "Your": 5478,
      "Yabu": 5479,
      "YOU": 5480,
      "Ze": 5481,
      "[],": 5482,
      "[]);\\": 5483,
      "[])": 5484,
      "\\\",&": 5485,
      "]」": 5486,
      "]<=": 5487,
      "]>=": 5488,
      "^=": 5489,
      "_com": 5490,
      "_hex": 5491,
      "_name": 5492,
      "_hour": 5493,
      "_mutex": 5494,
      "aw": 5495,
      "aer": 5496,
      "aje": 5497,
      "azi": 5498,
      "ahen": 5499,
      "aher": 5500,
      "ajye": 5501,
      "aja": 5502,
      "ajyana": 5503,
      "ajejwe": 5504,
      "awards": 5505,
      "bb": 5506,
      "bro": 5507,
      "bing": 5508,
      "bus": 5509,
      "bwa": 5510,
      "bwas": 5511,
      "bif": 5512,
      "baf": 5513,
      "bang": 5514,
      "bana": 5515,
      "bate": 5516,
      "bwar": 5517,
      "bill": 5518,
      "bwo": 5519,
      "bations": 5520,
      "bure": 5521,
      "baka": 5522,
      "bane": 5523,
      "bise": 5524,
      "bandi": 5525,
      "bwi": 5526,
      "bio": 5527,
      "bator": 5528,
      "barik": 5529,
      "bumwe": 5530,
      "bike": 5531,
      "biro": 5532,
      "blic": 5533,
      "bice": 5534,
      "biny": 5535,
      "bikom": 5536,
      "binga": 5537,
      "bizi": 5538,
      "bitego": 5539,
      "bamaze": 5540,
      "bushikiranganji": 5541,
      "bimwe": 5542,
      "bibi": 5543,
      "bavuye": 5544,
      "bwiwe": 5545,
      "bla": 5546,
      "bungirije": 5547,
      "bameze": 5548,
      "birego": 5549,
      "bachinwa": 5550,
      "bimaze": 5551,
      "bikorera": 5552,
      "cd": 5553,
      "cg": 5554,
      "cs": 5555,
      "cin": 5556,
      "cat": 5557,
      "cam": 5558,
      "cun": 5559,
      "cut": 5560,
      "cye": 5561,
      "cig": 5562,
      "caf": 5563,
      "cid": 5564,
      "calf": 5565,
      "cry": 5566,
      "cause": 5567,
      "cra": 5568,
      "center": 5569,
      "cga": 5570,
      "categ": 5571,
      "catung": 5572,
      "cases": 5573,
      "cpy": 5574,
      "cuto": 5575,
      "cteur": 5576,
      "cending": 5577,
      "cakoze": 5578,
      "d1": 5579,
      "d2": 5580,
      "d3": 5581,
      "d4": 5582,
      "dj": 5583,
      "dan": 5584,
      "das": 5585,
      "dam": 5586,
      "dul": 5587,
      "dje": 5588,
      "date": 5589,
      "dush": 5590,
      "dist": 5591,
      "dara": 5592,
      "dass": 5593,
      "dition": 5594,
      "dbug": 5595,
      "dasubira": 5596,
      "d_name": 5597,
      "eg": 5598,
      "eh": 5599,
      "eu": 5600,
      "ehe": 5601,
      "ese": 5602,
      "eye": 5603,
      "esh": 5604,
      "econ": 5605,
      "eso": 5606,
      "eby": 5607,
      "ezi": 5608,
      "ewo": 5609,
      "ezo": 5610,
      "eba": 5611,
      "eop": 5612,
      "ebu": 5613,
      "eji": 5614,
      "egest": 5615,
      "euro": 5616,
      "ehị": 5617,
      "eous": 5618,
      "ekwu": 5619,
      "esha": 5620,
      "ebum": 5621,
      "email": 5622,
      "ekele": 5623,
      "echeta": 5624,
      "ff": 5625,
      "fi": 5626,
      "fụ": 5627,
      "fan": 5628,
      "far": 5629,
      "fas": 5630,
      "fab": 5631,
      "fle": 5632,
      "fub": 5633,
      "fak": 5634,
      "fil": 5635,
      "fue": 5636,
      "fio": 5637,
      "fast": 5638,
      "fuma": 5639,
      "fund": 5640,
      "fans": 5641,
      "fumuk": 5642,
      "finde": 5643,
      "fuza": 5644,
      "fail": 5645,
      "fashe": 5646,
      "fandom": 5647,
      "fell": 5648,
      "fitiye": 5649,
      "fakazi": 5650,
      "fails": 5651,
      "faces": 5652,
      "favor": 5653,
      "fclose": 5654,
      "fashije": 5655,
      "fflush": 5656,
      "fwrite": 5657,
      "gg": 5658,
      "gi": 5659,
      "gon": 5660,
      "gac": 5661,
      "gent": 5662,
      "guc": 5663,
      "gap": 5664,
      "gah": 5665,
      "gish": 5666,
      "gue": 5667,
      "gone": 5668,
      "give": 5669,
      "guru": 5670,
      "gits": 5671,
      "gera": 5672,
      "gment": 5673,
      "gles": 5674,
      "gara": 5675,
      "guma": 5676,
      "gbak": 5677,
      "gbag": 5678,
      "gij": 5679,
      "gain": 5680,
      "gwara": 5681,
      "gafash": 5682,
      "gikombe": 5683,
      "gitego": 5684,
      "gikorwa": 5685,
      "gbụ": 5686,
      "gace": 5687,
      "ganz": 5688,
      "gonda": 5689,
      "gereza": 5690,
      "gamiye": 5691,
      "hr": 5692,
      "hä": 5693,
      "hal": 5694,
      "hir": 5695,
      "hand": 5696,
      "hak": 5697,
      "hone": 5698,
      "hore": 5699,
      "hash": 5700,
      "hora": 5701,
      "hura": 5702,
      "hass": 5703,
      "hach": 5704,
      "hoba": 5705,
      "huza": 5706,
      "hakaba": 5707,
      "hakore": 5708,
      "hamaze": 5709,
      "hatum": 5710,
      "hates": 5711,
      "harry": 5712,
      "hụrụ": 5713,
      "hahurira": 5714,
      "hakozwe": 5715,
      "iy": 5716,
      "ior": 5717,
      "iar": 5718,
      "iom": 5719,
      "iya": 5720,
      "ipe": 5721,
      "iper": 5722,
      "iano": 5723,
      "iaga": 5724,
      "iyat": 5725,
      "iyas": 5726,
      "ique": 5727,
      "ihera": 5728,
      "iyongera": 5729,
      "ju": 5730,
      "jụ": 5731,
      "jer": 5732,
      "jen": 5733,
      "jed": 5734,
      "jum": 5735,
      "jing": 5736,
      "jun": 5737,
      "jap": 5738,
      "job": 5739,
      "jay": 5740,
      "jiye": 5741,
      "jandi": 5742,
      "jung": 5743,
      "jud": 5744,
      "jima": 5745,
      "jour": 5746,
      "jambo": 5747,
      "jabana": 5748,
      "jump": 5749,
      "jamw": 5750,
      "kp": 5751,
      "kö": 5752,
      "kụ": 5753,
      "kin": 5754,
      "kre": 5755,
      "kal": 5756,
      "ked": 5757,
      "kim": 5758,
      "kak": 5759,
      "kdi": 5760,
      "kwas": 5761,
      "kiz": 5762,
      "kuc": 5763,
      "kiv": 5764,
      "kah": 5765,
      "kame": 5766,
      "kare": 5767,
      "kari": 5768,
      "kama": 5769,
      "kose": 5770,
      "kane": 5771,
      "kator": 5772,
      "kaban": 5773,
      "kung": 5774,
      "kund": 5775,
      "kinda": 5776,
      "kintu": 5777,
      "kikaba": 5778,
      "kungu": 5779,
      "kumwa": 5780,
      "kimwe": 5781,
      "kuburyo": 5782,
      "kaniye": 5783,
      "kimen": 5784,
      "kongera": 5785,
      "kandid": 5786,
      "kunye": 5787,
      "kibuga": 5788,
      "kavuk": 5789,
      "kunyura": 5790,
      "ls": 5791,
      "lt": 5792,
      "lụ": 5793,
      "lan": 5794,
      "led": 5795,
      "lag": 5796,
      "lim": 5797,
      "lun": 5798,
      "lad": 5799,
      "lig": 5800,
      "lent": 5801,
      "liv": 5802,
      "lang": 5803,
      "lta": 5804,
      "luka": 5805,
      "latin": 5806,
      "lier": 5807,
      "limit": 5808,
      "luta": 5809,
      "loma": 5810,
      "ljung": 5811,
      "mj": 5812,
      "mm": 5813,
      "mam": 5814,
      "mab": 5815,
      "mwe": 5816,
      "mion": 5817,
      "map": 5818,
      "mah": 5819,
      "mih": 5820,
      "mort": 5821,
      "mme": 5822,
      "mill": 5823,
      "mama": 5824,
      "mura": 5825,
      "mabo": 5826,
      "mwi": 5827,
      "mund": 5828,
      "munt": 5829,
      "mich": 5830,
      "mence": 5831,
      "monly": 5832,
      "mune": 5833,
      "manda": 5834,
      "mike": 5835,
      "mona": 5836,
      "mumun": 5837,
      "miss": 5838,
      "mbeg": 5839,
      "muba": 5840,
      "minota": 5841,
      "mier": 5842,
      "march": 5843,
      "mushikiranganji": 5844,
      "mabanga": 5845,
      "mubi": 5846,
      "mwari": 5847,
      "mkp": 5848,
      "nc": 5849,
      "nw": 5850,
      "nọ": 5851,
      "nụ": 5852,
      "ner": 5853,
      "nan": 5854,
      "nar": 5855,
      "nen": 5856,
      "nas": 5857,
      "nal": 5858,
      "nur": 5859,
      "nim": 5860,
      "nwe": 5861,
      "nch": 5862,
      "nter": 5863,
      "nge": 5864,
      "nul": 5865,
      "nid": 5866,
      "nprint": 5867,
      "nav": 5868,
      "nih": 5869,
      "nder": 5870,
      "nwere": 5871,
      "nhead": 5872,
      "ntime": 5873,
      "nreturn": 5874,
      "nche": 5875,
      "nmain": 5876,
      "ngen": 5877,
      "nzo": 5878,
      "nEx": 5879,
      "nNode": 5880,
      "nsum": 5881,
      "nubu": 5882,
      "nmin": 5883,
      "nmber": 5884,
      "nser": 5885,
      "nlong": 5886,
      "nard": 5887,
      "nPlease": 5888,
      "nunsigned": 5889,
      "niko": 5890,
      "nakw": 5891,
      "national": 5892,
      "nzego": 5893,
      "nnum_result": 5894,
      "nuburyo": 5895,
      "nikintu": 5896,
      "nizo": 5897,
      "nihu": 5898,
      "nants": 5899,
      "nungen": 5900,
      "nashatse": 5901,
      "ncuro": 5902,
      "nukuri": 5903,
      "npthread": 5904,
      "nuwahahiye": 5905,
      "nAva": 5906,
      "nFo": 5907,
      "ox": 5908,
      "oy": 5909,
      "osi": 5910,
      "ole": 5911,
      "oye": 5912,
      "och": 5913,
      "oter": 5914,
      "osh": 5915,
      "oul": 5916,
      "oso": 5917,
      "own": 5918,
      "okw": 5919,
      "oho": 5920,
      "ows": 5921,
      "oka": 5922,
      "ouble": 5923,
      "oji": 5924,
      "ozwa": 5925,
      "okwu": 5926,
      "oumub": 5927,
      "ozu": 5928,
      "oplanet": 5929,
      "ohora": 5930,
      "pu": 5931,
      "pis": 5932,
      "pur": 5933,
      "pir": 5934,
      "pun": 5935,
      "pere": 5936,
      "ption": 5937,
      "pfo": 5938,
      "past": 5939,
      "pati": 5940,
      "pain": 5941,
      "poro": 5942,
      "pted": 5943,
      "ppers": 5944,
      "pears": 5945,
      "pọrọ": 5946,
      "pair": 5947,
      "pfuma": 5948,
      "pgg": 5949,
      "rb": 5950,
      "rs": 5951,
      "rị": 5952,
      "rat": 5953,
      "rand": 5954,
      "ric": 5955,
      "rent": 5956,
      "raf": 5957,
      "rwit": 5958,
      "rare": 5959,
      "rundi": 5960,
      "rya": 5961,
      "rwar": 5962,
      "ruru": 5963,
      "rill": 5964,
      "rush": 5965,
      "rubur": 5966,
      "rire": 5967,
      "rikaba": 5968,
      "riba": 5969,
      "rice": 5970,
      "rating": 5971,
      "ruza": 5972,
      "riraz": 5973,
      "ruf": 5974,
      "ryeme": 5975,
      "rix": 5976,
      "ribisoban": 5977,
      "rizo": 5978,
      "ruvuga": 5979,
      "rible": 5980,
      "ravo": 5981,
      "rihari": 5982,
      "rfue": 5983,
      "riyas": 5984,
      "sar": 5985,
      "sat": 5986,
      "sit": 5987,
      "sof": 5988,
      "swe": 5989,
      "spr": 5990,
      "saba": 5991,
      "slo": 5992,
      "site": 5993,
      "squ": 5994,
      "sure": 5995,
      "sscanf": 5996,
      "suko": 5997,
      "sant": 5998,
      "sister": 5999,
      "sirị": 6000,
      "slay": 6001,
      "srand": 6002,
      "tar": 6003,
      "tst": 6004,
      "tag": 6005,
      "tro": 6006,
      "tle": 6007,
      "twe": 6008,
      "tuk": 6009,
      "tte": 6010,
      "twit": 6011,
      "tira": 6012,
      "tang": 6013,
      "till": 6014,
      "tta": 6015,
      "tine": 6016,
      "tara": 6017,
      "tuma": 6018,
      "tung": 6019,
      "tform": 6020,
      "tical": 6021,
      "tative": 6022,
      "turik": 6023,
      "tanz": 6024,
      "tiste": 6025,
      "tuta": 6026,
      "tones": 6027,
      "tangazo": 6028,
      "tificial": 6029,
      "tgebiete": 6030,
      "toni": 6031,
      "uen": 6032,
      "ude": 6033,
      "uing": 6034,
      "uwe": 6035,
      "uwa": 6036,
      "uwas": 6037,
      "ustr": 6038,
      "uzi": 6039,
      "udo": 6040,
      "uhag": 6041,
      "uple": 6042,
      "uhig": 6043,
      "uous": 6044,
      "ujije": 6045,
      "uences": 6046,
      "vu": 6047,
      "vor": 6048,
      "ving": 6049,
      "vyon": 6050,
      "vuye": 6051,
      "vant": 6052,
      "vious": 6053,
      "vune": 6054,
      "vuze": 6055,
      "vary": 6056,
      "viyo": 6057,
      "vative": 6058,
      "vurwa": 6059,
      "vague": 6060,
      "vigo": 6061,
      "vinkoho": 6062,
      "vital": 6063,
      "vils": 6064,
      "wb": 6065,
      "wụ": 6066,
      "wer": 6067,
      "wur": 6068,
      "wam": 6069,
      "wand": 6070,
      "wub": 6071,
      "wic": 6072,
      "wik": 6073,
      "wak": 6074,
      "wac": 6075,
      "wib": 6076,
      "wana": 6077,
      "wate": 6078,
      "waka": 6079,
      "weng": 6080,
      "waban": 6081,
      "wumw": 6082,
      "wirinda": 6083,
      "waga": 6084,
      "wabag": 6085,
      "wenya": 6086,
      "wamu": 6087,
      "wrest": 6088,
      "wagar": 6089,
      "wagira": 6090,
      "wife": 6091,
      "wambaye": 6092,
      "wandika": 6093,
      "wakira": 6094,
      "wling": 6095,
      "winj": 6096,
      "wdirect": 6097,
      "wabaye": 6098,
      "xim": 6099,
      "xib": 6100,
      "xaver": 6101,
      "xGAS": 6102,
      "yụ": 6103,
      "yor": 6104,
      "yed": 6105,
      "yle": 6106,
      "yik": 6107,
      "yiv": 6108,
      "yif": 6109,
      "yile": 6110,
      "yih": 6111,
      "yite": 6112,
      "yera": 6113,
      "yane": 6114,
      "yise": 6115,
      "yabo": 6116,
      "yator": 6117,
      "yanye": 6118,
      "yavuga": 6119,
      "yariko": 6120,
      "yuka": 6121,
      "yimana": 6122,
      "yirinda": 6123,
      "yina": 6124,
      "yafash": 6125,
      "yafise": 6126,
      "yizwe": 6127,
      "yamaze": 6128,
      "yitwa": 6129,
      "yifat": 6130,
      "yambara": 6131,
      "yanz": 6132,
      "yaca": 6133,
      "yishy": 6134,
      "yanze": 6135,
      "yumba": 6136,
      "yibaza": 6137,
      "yves": 6138,
      "yikira": 6139,
      "yvan": 6140,
      "yinj": 6141,
      "yitanduk": 6142,
      "yubah": 6143,
      "yakozwe": 6144,
      "zy": 6145,
      "zị": 6146,
      "zọ": 6147,
      "zụ": 6148,
      "zer": 6149,
      "zur": 6150,
      "zed": 6151,
      "zam": 6152,
      "zum": 6153,
      "zand": 6154,
      "zig": 6155,
      "zib": 6156,
      "zah": 6157,
      "zih": 6158,
      "zuru": 6159,
      "zite": 6160,
      "zura": 6161,
      "zimb": 6162,
      "ziri": 6163,
      "zator": 6164,
      "zino": 6165,
      "zaha": 6166,
      "zikaba": 6167,
      "zumwa": 6168,
      "zong": 6169,
      "zafashwe": 6170,
      "zwan": 6171,
      "zamar": 6172,
      "zica": 6173,
      "zagiye": 6174,
      "zarush": 6175,
      "zabib": 6176,
      "ziva": 6177,
      "zabaye": 6178,
      "}-": 6179,
      "}}": 6180,
      "~=": 6181,
      "Über": 6182,
      "ße": 6183,
      "ßend": 6184,
      "ät": 6185,
      "änd": 6186,
      "änder": 6187,
      "öff": 6188,
      "ΑΓ": 6189,
      "ΑΣ": 6190,
      "ΓΗ": 6191,
      "Για": 6192,
      "ΔΕ": 6193,
      "ΔΙ": 6194,
      "ΔΡ": 6195,
      "Δή": 6196,
      "Δε": 6197,
      "Δι": 6198,
      "Δευ": 6199,
      "ΕΙ": 6200,
      "Εά": 6201,
      "Εγ": 6202,
      "Εκ": 6203,
      "Επ": 6204,
      "Εντ": 6205,
      "Θέ": 6206,
      "ΙΟ": 6207,
      "ΚΗ": 6208,
      "Κο": 6209,
      "ΚΕΣ": 6210,
      "Καλ": 6211,
      "Λαμ": 6212,
      "Μπ": 6213,
      "Οι": 6214,
      "Ορ": 6215,
      "ΟΛΙ": 6216,
      "Πέ": 6217,
      "Πα": 6218,
      "Πε": 6219,
      "Πρω": 6220,
      "ΡΙΟ": 6221,
      "ΣΧ": 6222,
      "Σχ": 6223,
      "Στα": 6224,
      "Τα": 6225,
      "ΤΕΣ": 6226,
      "Χρησιμοποι": 6227,
      "ΩΓΗ": 6228,
      "άλ": 6229,
      "άξ": 6230,
      "έγ": 6231,
      "έστ": 6232,
      "έες": 6233,
      "ήρι": 6234,
      "ίε": 6235,
      "ίν": 6236,
      "ίω": 6237,
      "ίσε": 6238,
      "αβ": 6239,
      "αε": 6240,
      "ασ": 6241,
      "ατ": 6242,
      "αυ": 6243,
      "αύ": 6244,
      "αμο": 6245,
      "αποδ": 6246,
      "αποδο": 6247,
      "βε": 6248,
      "βο": 6249,
      "βρίου": 6250,
      "γηση": 6251,
      "γαν": 6252,
      "γμένη": 6253,
      "δε": 6254,
      "δικ": 6255,
      "δες": 6256,
      "δαπ": 6257,
      "δέστ": 6258,
      "εξ": 6259,
      "εύ": 6260,
      "ενη": 6261,
      "ενο": 6262,
      "ετικ": 6263,
      "εία": 6264,
      "ερε": 6265,
      "εσα": 6266,
      "εγμένη": 6267,
      "ζάνη": 6268,
      "ηθ": 6269,
      "ητ": 6270,
      "ημένο": 6271,
      "θο": 6272,
      "θυ": 6273,
      "θμο": 6274,
      "θρω": 6275,
      "θάλ": 6276,
      "θενο": 6277,
      "ισ": 6278,
      "ιση": 6279,
      "ιτε": 6280,
      "ιστη": 6281,
      "κε": 6282,
      "κο": 6283,
      "κό": 6284,
      "κρι": 6285,
      "κών": 6286,
      "κεμ": 6287,
      "λτ": 6288,
      "λό": 6289,
      "λου": 6290,
      "λικ": 6291,
      "λαμ": 6292,
      "λει": 6293,
      "λες": 6294,
      "λαστικ": 6295,
      "λεία": 6296,
      "λιτε": 6297,
      "μπ": 6298,
      "μφ": 6299,
      "μίου": 6300,
      "νέες": 6301,
      "ξου": 6302,
      "ορ": 6303,
      "οποι": 6304,
      "ολεία": 6305,
      "πω": 6306,
      "πει": 6307,
      "πιο": 6308,
      "πίε": 6309,
      "πλαστικ": 6310,
      "ρυ": 6311,
      "ρύ": 6312,
      "ρου": 6313,
      "ρία": 6314,
      "ργή": 6315,
      "ρες": 6316,
      "σο": 6317,
      "συ": 6318,
      "σχ": 6319,
      "σύ": 6320,
      "σμένη": 6321,
      "σκών": 6322,
      "τά": 6323,
      "τή": 6324,
      "τό": 6325,
      "υπο": 6326,
      "υγή": 6327,
      "υλικ": 6328,
      "φου": 6329,
      "φερε": 6330,
      "χου": 6331,
      "χής": 6332,
      "χνικ": 6333,
      "χρω": 6334,
      "χρησιμοποι": 6335,
      "χίσε": 6336,
      "ωνα": 6337,
      "ότη": 6338,
      "ότα": 6339,
      "όλες": 6340,
      "όρου": 6341,
      "ύς": 6342,
      "Бр": 6343,
      "Бро": 6344,
      "Вел": 6345,
      "Дол": 6346,
      "Дру": 6347,
      "Ке": 6348,
      "Ли": 6349,
      "Лу": 6350,
      "Не": 6351,
      "Нов": 6352,
      "Нек": 6353,
      "Ст": 6354,
      "Ха": 6355,
      "Хо": 6356,
      "Цар": 6357,
      "ах": 6358,
      "ана": 6359,
      "ание": 6360,
      "бол": 6361,
      "без": 6362,
      "бах": 6363,
      "вс": 6364,
      "вых": 6365,
      "вет": 6366,
      "вна": 6367,
      "вля": 6368,
      "га": 6369,
      "гда": 6370,
      "ду": 6371,
      "дек": 6372,
      "ее": 6373,
      "еск": 6374,
      "ебли": 6375,
      "енно": 6376,
      "евых": 6377,
      "зу": 6378,
      "зя": 6379,
      "зей": 6380,
      "ич": 6381,
      "ищ": 6382,
      "ию": 6383,
      "иод": 6384,
      "ине": 6385,
      "иро": 6386,
      "ибол": 6387,
      "йст": 6388,
      "йский": 6389,
      "ки": 6390,
      "кс": 6391,
      "кон": 6392,
      "ких": 6393,
      "лся": 6394,
      "мп": 6395,
      "му": 6396,
      "мар": 6397,
      "мот": 6398,
      "мер": 6399,
      "мест": 6400,
      "нц": 6401,
      "нел": 6402,
      "нна": 6403,
      "нси": 6404,
      "нский": 6405,
      "ок": 6406,
      "они": 6407,
      "ора": 6408,
      "оги": 6409,
      "опр": 6410,
      "оро": 6411,
      "остав": 6412,
      "озя": 6413,
      "пол": 6414,
      "поб": 6415,
      "пед": 6416,
      "пион": 6417,
      "пищ": 6418,
      "поро": 6419,
      "ря": 6420,
      "ритания": 6421,
      "ред": 6422,
      "сш": 6423,
      "сол": 6424,
      "соб": 6425,
      "ска": 6426,
      "сле": 6427,
      "ситель": 6428,
      "срав": 6429,
      "сло": 6430,
      "сре": 6431,
      "селяющими": 6432,
      "смот": 6433,
      "сред": 6434,
      "тов": 6435,
      "тых": 6436,
      "тем": 6437,
      "тка": 6438,
      "ущ": 6439,
      "ую": 6440,
      "утол": 6441,
      "уров": 6442,
      "уковицы": 6443,
      "удек": 6444,
      "фий": 6445,
      "фор": 6446,
      "хозя": 6447,
      "це": 6448,
      "цел": 6449,
      "цион": 6450,
      "цвет": 6451,
      "чест": 6452,
      "чис": 6453,
      "шь": 6454,
      "шив": 6455,
      "ший": 6456,
      "шних": 6457,
      "шку": 6458,
      "шие": 6459,
      "шающих": 6460,
      "широ": 6461,
      "ща": 6462,
      "щё": 6463,
      "ый": 6464,
      "ыни": 6465,
      "ытых": 6466,
      "ьзу": 6467,
      "это": 6468,
      "энц": 6469,
      "явля": 6470,
      "ёл": 6471,
      "ённо": 6472,
      "ịmen": 6473,
      "ịlag": 6474,
      "ịrị": 6475,
      "ịzụ": 6476,
      "ọma": 6477,
      "ọment": 6478,
      "ọnwa": 6479,
      "ọchị": 6480,
      "ọpụta": 6481,
      "ọfụ": 6482,
      "ọgbag": 6483,
      "ọkụ": 6484,
      "ọlụ": 6485,
      "ọnụ": 6486,
      "ụbụ": 6487,
      "ụbọ": 6488,
      "ụzọ": 6489,
      "….": 6490,
      "⋆),": 6491,
      "、「": 6492,
      "、＋": 6493,
      "。（": 6494,
      "いえ": 6495,
      "いく": 6496,
      "いて": 6497,
      "いま": 6498,
      "いら": 6499,
      "いる": 6500,
      "います": 6501,
      "おお": 6502,
      "お好": 6503,
      "お客": 6504,
      "お支払い": 6505,
      "かで": 6506,
      "かの": 6507,
      "から": 6508,
      "がご": 6509,
      "が実": 6510,
      "が翻": 6511,
      "がある": 6512,
      "が別途": 6513,
      "が1名の": 6514,
      "が2名": 6515,
      "き込": 6516,
      "くの": 6517,
      "くお願い": 6518,
      "けの": 6519,
      "こち": 6520,
      "ご兄": 6521,
      "ご友": 6522,
      "ご一緒に": 6523,
      "ざいます": 6524,
      "した": 6525,
      "しゃ": 6526,
      "しません": 6527,
      "しくお願い": 6528,
      "する": 6529,
      "す場": 6530,
      "せて": 6531,
      "その": 6532,
      "だ総": 6533,
      "だとも": 6534,
      "だけの": 6535,
      "っしゃ": 6536,
      "ついて": 6537,
      "つかの": 6538,
      "ており": 6539,
      "ている": 6540,
      "でで": 6541,
      "では": 6542,
      "でも": 6543,
      "でカ": 6544,
      "で家": 6545,
      "で当": 6546,
      "で残": 6547,
      "で作業": 6548,
      "でいえ": 6549,
      "と分": 6550,
      "と複": 6551,
      "と言": 6552,
      "と記": 6553,
      "として": 6554,
      "ととも": 6555,
      "どの系統": 6556,
      "なく": 6557,
      "な理": 6558,
      "な笑": 6559,
      "に合": 6560,
      "に至": 6561,
      "に撮影": 6562,
      "におお": 6563,
      "について": 6564,
      "にどの系統": 6565,
      "ね相": 6566,
      "のシ": 6567,
      "のリ": 6568,
      "の全": 6569,
      "の削": 6570,
      "の対": 6571,
      "の技": 6572,
      "の更": 6573,
      "の書": 6574,
      "の登": 6575,
      "の程": 6576,
      "の第": 6577,
      "の終": 6578,
      "の経": 6579,
      "の考": 6580,
      "は弊": 6581,
      "は当": 6582,
      "は明": 6583,
      "は撮影": 6584,
      "はAma": 6585,
      "ば後": 6586,
      "へ一緒に": 6587,
      "へお客": 6588,
      "へのリ": 6589,
      "ほど": 6590,
      "まれ": 6591,
      "までで": 6592,
      "みに合": 6593,
      "みの削": 6594,
      "むね相": 6595,
      "も出": 6596,
      "も可": 6597,
      "もご一緒に": 6598,
      "や19": 6599,
      "やお子様の": 6600,
      "より": 6601,
      "よろ": 6602,
      "られ": 6603,
      "らかで": 6604,
      "らは弊": 6605,
      "る場": 6606,
      "る書": 6607,
      "る第": 6608,
      "るととも": 6609,
      "るに至": 6610,
      "れ姿": 6611,
      "れる第": 6612,
      "わせて": 6613,
      "われる第": 6614,
      "を得": 6615,
      "を撮影": 6616,
      "をお願い": 6617,
      "アメ": 6618,
      "ィリ": 6619,
      "ィン": 6620,
      "ウェ": 6621,
      "エス": 6622,
      "カゴ": 6623,
      "カ合": 6624,
      "カット": 6625,
      "ギフ": 6626,
      "クー": 6627,
      "クエス": 6628,
      "グの第": 6629,
      "ケテ": 6630,
      "ケロッ": 6631,
      "コト": 6632,
      "サチ": 6633,
      "シカゴ": 6634,
      "スタ": 6635,
      "スウェ": 6636,
      "スクー": 6637,
      "セッ": 6638,
      "ップ": 6639,
      "ツ工": 6640,
      "ト券": 6641,
      "トも可": 6642,
      "ノー": 6643,
      "パの考": 6644,
      "フィリ": 6645,
      "プラ": 6646,
      "マン": 6647,
      "マー": 6648,
      "マサチ": 6649,
      "メラ": 6650,
      "ュー": 6651,
      "ョット": 6652,
      "ヨー": 6653,
      "ラー": 6654,
      "リカ合": 6655,
      "ル教": 6656,
      "ン大学": 6657,
      "ンです": 6658,
      "一人": 6659,
      "一回": 6660,
      "七五": 6661,
      "三の対": 6662,
      "下の全": 6663,
      "主役": 6664,
      "事前": 6665,
      "人様": 6666,
      "代マー": 6667,
      "仮説": 6668,
      "修士号": 6669,
      "先は当": 6670,
      "円の技": 6671,
      "分だけの": 6672,
      "分でいえ": 6673,
      "初頭": 6674,
      "区分でいえ": 6675,
      "博士号": 6676,
      "古学": 6677,
      "可料": 6678,
      "合は": 6679,
      "同行": 6680,
      "名いら": 6681,
      "含まれ": 6682,
      "品枚": 6683,
      "問的": 6684,
      "営学": 6685,
      "器時代": 6686,
      "四紀": 6687,
      "国の経": 6688,
      "地質": 6689,
      "場でカ": 6690,
      "多い": 6691,
      "多くの": 6692,
      "孤立": 6693,
      "学問的": 6694,
      "完新世": 6695,
      "宮社": 6696,
      "希望": 6697,
      "年の書": 6698,
      "度のシ": 6699,
      "張して": 6700,
      "当する": 6701,
      "当な理": 6702,
      "意を得": 6703,
      "所がご": 6704,
      "数名いら": 6705,
      "数多くの": 6706,
      "料が発生": 6707,
      "断言": 6708,
      "方法": 6709,
      "方管": 6710,
      "施され": 6711,
      "族写真": 6712,
      "旧石": 6713,
      "時間": 6714,
      "晴れ姿": 6715,
      "書が翻": 6716,
      "期旧石": 6717,
      "末から": 6718,
      "本など": 6719,
      "様より": 6720,
      "正当な理": 6721,
      "氷河": 6722,
      "然な笑": 6723,
      "版され": 6724,
      "物では": 6725,
      "現代マー": 6726,
      "理論": 6727,
      "理下の全": 6728,
      "由によ": 6729,
      "番号": 6730,
      "知られ": 6731,
      "社撮影": 6732,
      "科大学で": 6733,
      "税抜": 6734,
      "約15": 6735,
      "納品枚": 6736,
      "絡先は当": 6737,
      "緊張して": 6738,
      "者が1名の": 6739,
      "者として": 6740,
      "能です": 6741,
      "自然な笑": 6742,
      "致します": 6743,
      "著書が翻": 6744,
      "衆国の経": 6745,
      "術作業": 6746,
      "角度のシ": 6747,
      "解説": 6748,
      "許可料": 6749,
      "訳され": 6750,
      "象者が1名の": 6751,
      "述され": 6752,
      "連絡先は当": 6753,
      "録email": 6754,
      "除について": 6755,
      "顔で残": 6756,
      "類され": 6757,
      "≡": 6758,
      "）/": 6759,
      "０円": 6760,
      "２００": 6761,
      "５００": 6762,
      "insi": 6763,
      "inst": 6764,
      "inye": 6765,
      "inno": 6766,
      "inue": 6767,
      "inira": 6768,
      "insu": 6769,
      "inher": 6770,
      "inany": 6771,
      "inku": 6772,
      "infl": 6773,
      "inzwe": 6774,
      "income": 6775,
      "injyana": 6776,
      "inste": 6777,
      "inarar": 6778,
      "incuro": 6779,
      "inistiri": 6780,
      "hey": 6781,
      "heat": 6782,
      "hest": 6783,
      "hero": 6784,
      "hema": 6785,
      "heav": 6786,
      "hell": 6787,
      "hezo": 6788,
      "heart": 6789,
      "heating": 6790,
      "hetero": 6791,
      "erat": 6792,
      "erab": 6793,
      "erne": 6794,
      "erwa": 6795,
      "erana": 6796,
      "erally": 6797,
      "ertion": 6798,
      "ershi": 6799,
      "eruka": 6800,
      "eramak": 6801,
      "ertain": 6802,
      "erereye": 6803,
      "erali": 6804,
      "erste": 6805,
      "ereranije": 6806,
      "ervative": 6807,
      "anọ": 6808,
      "anat": 6809,
      "anis": 6810,
      "anir": 6811,
      "anag": 6812,
      "anwe": 6813,
      "antu": 6814,
      "anations": 6815,
      "aniza": 6816,
      "aniri": 6817,
      "antit": 6818,
      "anuko": 6819,
      "anire": 6820,
      "anko": 6821,
      "anavuga": 6822,
      "anip": 6823,
      "anks": 6824,
      "animal": 6825,
      "aniriye": 6826,
      "anisha": 6827,
      "animp": 6828,
      "ankuba": 6829,
      "ankano": 6830,
      "anced": 6831,
      "anarinda": 6832,
      "anerekana": 6833,
      "ankre": 6834,
      "theses": 6835,
      "onu": 6836,
      "onwa": 6837,
      "ondo": 6838,
      "onio": 6839,
      "onga": 6840,
      "onger": 6841,
      "onions": 6842,
      "online": 6843,
      "ondera": 6844,
      "onanko": 6845,
      "oral": 6846,
      "orph": 6847,
      "oriza": 6848,
      "ororera": 6849,
      "orwag": 6850,
      "oroni": 6851,
      "aru": 6852,
      "arit": 6853,
      "aring": 6854,
      "arim": 6855,
      "arbe": 6856,
      "aray": 6857,
      "arya": 6858,
      "arash": 6859,
      "arure": 6860,
      "arane": 6861,
      "arika": 6862,
      "ards": 6863,
      "aratin": 6864,
      "arivyo": 6865,
      "arenga": 6866,
      "arithm": 6867,
      "aruro": 6868,
      "aratanga": 6869,
      "arorera": 6870,
      "arangiye": 6871,
      "arches": 6872,
      "arụkọ": 6873,
      "aritiye": 6874,
      "aritsinda": 6875,
      "ariteze": 6876,
      "arakaye": 6877,
      "arongoye": 6878,
      "arumviriza": 6879,
      "arụbụ": 6880,
      "ats": 6881,
      "atub": 6882,
      "atnum": 6883,
      "atany": 6884,
      "atara": 6885,
      "atino": 6886,
      "atarik": 6887,
      "atire": 6888,
      "ataga": 6889,
      "atandukanye": 6890,
      "atanira": 6891,
      "atanu": 6892,
      "atified": 6893,
      "atangwa": 6894,
      "atandatu": 6895,
      "atsinda": 6896,
      "atirizi": 6897,
      "atamw": 6898,
      "atware": 6899,
      "ateranije": 6900,
      "atakaye": 6901,
      "ened": 6902,
      "engo": 6903,
      "enza": 6904,
      "endo": 6905,
      "enden": 6906,
      "enhan": 6907,
      "enget": 6908,
      "ends": 6909,
      "enjo": 6910,
      "enyuka": 6911,
      "enzura": 6912,
      "rece": 6913,
      "rell": 6914,
      "recom": 6915,
      "reka": 6916,
      "reve": 6917,
      "remake": 6918,
      "refin": 6919,
      "readd": 6920,
      "regis": 6921,
      "recomm": 6922,
      "rekam": 6923,
      "repres": 6924,
      "recor": 6925,
      "rewind": 6926,
      "revis": 6927,
      "recognit": 6928,
      "iti": 6929,
      "itu": 6930,
      "iten": 6931,
      "ited": 6932,
      "itsi": 6933,
      "itere": 6934,
      "itif": 6935,
      "itah": 6936,
      "itwar": 6937,
      "itive": 6938,
      "itiro": 6939,
      "itty": 6940,
      "itatu": 6941,
      "itions": 6942,
      "itwab": 6943,
      "itonda": 6944,
      "itanguye": 6945,
      "itware": 6946,
      "iterambere": 6947,
      "itorag": 6948,
      "itorwa": 6949,
      "iteramak": 6950,
      "isa": 6951,
      "ising": 6952,
      "isah": 6953,
      "istr": 6954,
      "ische": 6955,
      "isura": 6956,
      "isaha": 6957,
      "isenga": 6958,
      "isoner": 6959,
      "isanz": 6960,
      "isato": 6961,
      "isuku": 6962,
      "isoma": 6963,
      "isunga": 6964,
      "isaramu": 6965,
      "ishema": 6966,
      "desi": 6967,
      "dele": 6968,
      "dess": 6969,
      "deta": 6970,
      "deep": 6971,
      "descr": 6972,
      "descrip": 6973,
      "descript": 6974,
      "devel": 6975,
      "debris": 6976,
      "dependent": 6977,
      "ased": 6978,
      "asam": 6979,
      "asse": 6980,
      "asle": 6981,
      "asing": 6982,
      "asig": 6983,
      "asma": 6984,
      "asang": 6985,
      "asaba": 6986,
      "aseng": 6987,
      "asem": 6988,
      "asaha": 6989,
      "asatanga": 6990,
      "asoban": 6991,
      "asambur": 6992,
      "aserukira": 6993,
      "ascending": 6994,
      "asked": 6995,
      "ala": 6996,
      "aling": 6997,
      "alim": 6998,
      "alent": 6999,
      "alph": 7000,
      "ality": 7001,
      "along": 7002,
      "alet": 7003,
      "alog": 7004,
      "almost": 7005,
      "urir": 7006,
      "urub": 7007,
      "urut": 7008,
      "urch": 7009,
      "uruk": 7010,
      "urus": 7011,
      "urav": 7012,
      "uriye": 7013,
      "urdo": 7014,
      "urwo": 7015,
      "urura": 7016,
      "ureng": 7017,
      "urinda": 7018,
      "urire": 7019,
      "urije": 7020,
      "uraho": 7021,
      "uraga": 7022,
      "urimo": 7023,
      "uriyo": 7024,
      "urisha": 7025,
      "urance": 7026,
      "uranira": 7027,
      "urenge": 7028,
      "uranze": 7029,
      "urabon": 7030,
      "urwitwa": 7031,
      "urasi": 7032,
      "urasanga": 7033,
      "uruts": 7034,
      "urizo": 7035,
      "uragwa": 7036,
      "urbations": 7037,
      "urgent": 7038,
      "urwenya": 7039,
      "coco": 7040,
      "cose": 7041,
      "copen": 7042,
      "coba": 7043,
      "coach": 7044,
      "covered": 7045,
      "cotherapy": 7046,
      "couple": 7047,
      "eder": 7048,
      "edir": 7049,
      "edine": 7050,
      "edback": 7051,
      "edited": 7052,
      "irim": 7053,
      "iria": 7054,
      "irika": 7055,
      "irize": 7056,
      "iranye": 7057,
      "iraho": 7058,
      "irimana": 7059,
      "irambo": 7060,
      "irenga": 7061,
      "iririmb": 7062,
      "irimo": 7063,
      "irizwa": 7064,
      "irabab": 7065,
      "irukana": 7066,
      "irashobora": 7067,
      "iranzo": 7068,
      "iratik": 7069,
      "iragihugu": 7070,
      "irrell": 7071,
      "irasambur": 7072,
      "sie": 7073,
      "side": 7074,
      "siye": 7075,
      "simult": 7076,
      "sides": 7077,
      "siporo": 7078,
      "stim": 7079,
      "stly": 7080,
      "stel": 7081,
      "stone": 7082,
      "stinda": 7083,
      "stars": 7084,
      "stain": 7085,
      "story": 7086,
      "stabil": 7087,
      "stell": 7088,
      "stlichen": 7089,
      "style": 7090,
      "ständ": 7091,
      "ami": 7092,
      "aml": 7093,
      "amut": 7094,
      "amye": 7095,
      "ambe": 7096,
      "amad": 7097,
      "ament": 7098,
      "amus": 7099,
      "amwit": 7100,
      "amih": 7101,
      "amya": 7102,
      "amase": 7103,
      "amyi": 7104,
      "amanza": 7105,
      "amuba": 7106,
      "amizi": 7107,
      "amwan": 7108,
      "amurira": 7109,
      "amutse": 7110,
      "amabuye": 7111,
      "amiwe": 7112,
      "amande": 7113,
      "amugirira": 7114,
      "amavuk": 7115,
      "amtst": 7116,
      "amirambo": 7117,
      "abe": 7118,
      "aband": 7119,
      "abwe": 7120,
      "abut": 7121,
      "abbe": 7122,
      "abac": 7123,
      "abom": 7124,
      "abap": 7125,
      "abish": 7126,
      "abira": 7127,
      "abih": 7128,
      "abang": 7129,
      "abera": 7130,
      "abure": 7131,
      "abura": 7132,
      "abane": 7133,
      "abije": 7134,
      "abavuga": 7135,
      "abuze": 7136,
      "abene": 7137,
      "abimana": 7138,
      "abaga": 7139,
      "abiny": 7140,
      "abiriye": 7141,
      "abet": 7142,
      "aboro": 7143,
      "abikorwa": 7144,
      "abamaze": 7145,
      "abwira": 7146,
      "abashika": 7147,
      "abwinshi": 7148,
      "abitang": 7149,
      "abisigura": 7150,
      "abadi": 7151,
      "abashije": 7152,
      "abachinwa": 7153,
      "abikorera": 7154,
      "ablished": 7155,
      "abdul": 7156,
      "abiy": 7157,
      "abwaga": 7158,
      "abirabab": 7159,
      "umi": 7160,
      "umye": 7161,
      "umiye": 7162,
      "umana": 7163,
      "umiza": 7164,
      "umure": 7165,
      "umane": 7166,
      "umanye": 7167,
      "umenya": 7168,
      "umbam": 7169,
      "umushikir": 7170,
      "umenyesha": 7171,
      "umumogi": 7172,
      "umumenyereza": 7173,
      "tom": 7174,
      "top": 7175,
      "tole": 7176,
      "told": 7177,
      "tomo": 7178,
      "toms": 7179,
      "topic": 7180,
      "towards": 7181,
      "agag": 7182,
      "agiza": 7183,
      "aguye": 7184,
      "agire": 7185,
      "agwara": 7186,
      "agha": 7187,
      "agamo": 7188,
      "agaca": 7189,
      "agasanga": 7190,
      "agifise": 7191,
      "aghara": 7192,
      "agakora": 7193,
      "agabanuka": 7194,
      "agiar": 7195,
      "agwụ": 7196,
      "agitonda": 7197,
      "agiranye": 7198,
      "agumiza": 7199,
      "andwi": 7200,
      "andagiye": 7201,
      "andpun": 7202,
      "andengo": 7203,
      "anditsi": 7204,
      "andabang": 7205,
      "inture": 7206,
      "intimb": 7207,
      "intsin": 7208,
      "intain": 7209,
      "intrig": 7210,
      "intinzi": 7211,
      "intense": 7212,
      "room": 7213,
      "roles": 7214,
      "rows": 7215,
      "rossi": 7216,
      "ofe": 7217,
      "seed": 7218,
      "sele": 7219,
      "seite": 7220,
      "setw": 7221,
      "semana": 7222,
      "seling": 7223,
      "segment": 7224,
      "sehr": 7225,
      "searches": 7226,
      "lege": 7227,
      "leav": 7228,
      "leite": 7229,
      "legen": 7230,
      "ings": 7231,
      "ingwe": 7232,
      "inggo": 7233,
      "ingira": 7234,
      "ingiye": 7235,
      "ingabo": 7236,
      "inganda": 7237,
      "ingene": 7238,
      "ingamba": 7239,
      "ingamate": 7240,
      "inganyije": 7241,
      "inganiza": 7242,
      "imm": 7243,
      "imang": 7244,
      "imika": 7245,
      "imyi": 7246,
      "immed": 7247,
      "imico": 7248,
      "imikor": 7249,
      "imita": 7250,
      "impap": 7251,
      "imangiye": 7252,
      "imirwi": 7253,
      "imikino": 7254,
      "imenyesha": 7255,
      "iminal": 7256,
      "imerere": 7257,
      "imigen": 7258,
      "imuhaburarw": 7259,
      "imfub": 7260,
      "imvune": 7261,
      "imyanz": 7262,
      "iminsi": 7263,
      "imanimp": 7264,
      "imirimo": 7265,
      "unis": 7266,
      "unfor": 7267,
      "unce": 7268,
      "ungo": 7269,
      "unze": 7270,
      "uniye": 7271,
      "untu": 7272,
      "units": 7273,
      "unist": 7274,
      "undec": 7275,
      "unser": 7276,
      "untern": 7277,
      "unpop": 7278,
      "unrel": 7279,
      "unanira": 7280,
      "unhelp": 7281,
      "unexpected": 7282,
      "unstable": 7283,
      "unmeasure": 7284,
      "unseling": 7285,
      "ubug": 7286,
      "ubwit": 7287,
      "ubush": 7288,
      "ubiza": 7289,
      "ubura": 7290,
      "ubwor": 7291,
      "ubitse": 7292,
      "ubandanya": 7293,
      "ubarizwa": 7294,
      "ubucuruzi": 7295,
      "ubushize": 7296,
      "ubumen": 7297,
      "ubyina": 7298,
      "ubọchị": 7299,
      "west": 7300,
      "weho": 7301,
      "weghị": 7302,
      "wemba": 7303,
      "wemye": 7304,
      "weird": 7305,
      "weitere": 7306,
      "ute": 7307,
      "utic": 7308,
      "utac": 7309,
      "utundi": 7310,
      "utiza": 7311,
      "utes": 7312,
      "utwara": 7313,
      "utwan": 7314,
      "utral": 7315,
      "uterura": 7316,
      "utsche": 7317,
      "utuntu": 7318,
      "yewe": 7319,
      "yesu": 7320,
      "yeyi": 7321,
      "yega": 7322,
      "yekuvuga": 7323,
      "yegera": 7324,
      "yepfo": 7325,
      "icik": 7326,
      "icyo": 7327,
      "icite": 7328,
      "icama": 7329,
      "ices": 7330,
      "icyi": 7331,
      "iciro": 7332,
      "icong": 7333,
      "icabaf": 7334,
      "icuranze": 7335,
      "icumi": 7336,
      "icaguye": 7337,
      "ikwa": 7338,
      "ikiv": 7339,
      "ikib": 7340,
      "ikuye": 7341,
      "ikire": 7342,
      "ikud": 7343,
      "ikanye": 7344,
      "ikona": 7345,
      "ikindi": 7346,
      "ikina": 7347,
      "ikinwa": 7348,
      "ikwir": 7349,
      "ikwira": 7350,
      "ikanije": 7351,
      "ikishije": 7352,
      "ikigo": 7353,
      "ikizere": 7354,
      "ikivy": 7355,
      "ikambi": 7356,
      "ikaramu": 7357,
      "ikunzwe": 7358,
      "ikingira": 7359,
      "forget": 7360,
      "akwa": 7361,
      "akiri": 7362,
      "akuze": 7363,
      "akenye": 7364,
      "akwara": 7365,
      "akisha": 7366,
      "akambara": 7367,
      "akwira": 7368,
      "akomeje": 7369,
      "akeka": 7370,
      "akenshi": 7371,
      "akizere": 7372,
      "akongera": 7373,
      "akagom": 7374,
      "akugirira": 7375,
      "akeneye": 7376,
      "akpọrọ": 7377,
      "akuzi": 7378,
      "akinira": 7379,
      "akororera": 7380,
      "akabuze": 7381,
      "akagwara": 7382,
      "bewe": 7383,
      "behind": 7384,
      "belie": 7385,
      "before": 7386,
      "begeister": 7387,
      "betrie": 7388,
      "befinde": 7389,
      "uge": 7390,
      "ugal": 7391,
      "ugus": 7392,
      "uguru": 7393,
      "ugura": 7394,
      "ugara": 7395,
      "ugizwe": 7396,
      "ugamo": 7397,
      "ugaca": 7398,
      "ugashobora": 7399,
      "ugume": 7400,
      "ugnis": 7401,
      "ugasanga": 7402,
      "ugakira": 7403,
      "ugukaraba": 7404,
      "ugishinga": 7405,
      "ughey": 7406,
      "ugereranije": 7407,
      "ugasang": 7408,
      "ugurisha": 7409,
      "ney": 7410,
      "never": 7411,
      "ness": 7412,
      "negat": 7413,
      "nemark": 7414,
      "neutral": 7415,
      "ionize": 7416,
      "ionization": 7417,
      "ionately": 7418,
      "aced": 7419,
      "acce": 7420,
      "acira": 7421,
      "acht": 7422,
      "accur": 7423,
      "acef": 7424,
      "acumva": 7425,
      "acyay": 7426,
      "acyakomeje": 7427,
      "accid": 7428,
      "acute": 7429,
      "ada": 7430,
      "adf": 7431,
      "adah": 7432,
      "added": 7433,
      "aduze": 7434,
      "aduka": 7435,
      "adtfl": 7436,
      "adasa": 7437,
      "adtgebiete": 7438,
      "advant": 7439,
      "adikanije": 7440,
      "igt": 7441,
      "iger": 7442,
      "igish": 7443,
      "igira": 7444,
      "igiye": 7445,
      "igiza": 7446,
      "igera": 7447,
      "iguma": 7448,
      "igize": 7449,
      "igice": 7450,
      "igger": 7451,
      "igenge": 7452,
      "iganiro": 7453,
      "igaraga": 7454,
      "igabanuka": 7455,
      "igerageza": 7456,
      "iguous": 7457,
      "igamye": 7458,
      "igumane": 7459,
      "igiciro": 7460,
      "through": 7461,
      "three": 7462,
      "third": 7463,
      "thrill": 7464,
      "verage": 7465,
      "version": 7466,
      "verord": 7467,
      "vertex": 7468,
      "verhal": 7469,
      "versit": 7470,
      "enti": 7471,
      "entlic": 7472,
      "cha": 7473,
      "chr": 7474,
      "cht": 7475,
      "chas": 7476,
      "chive": 7477,
      "chlie": 7478,
      "chmark": 7479,
      "chnic": 7480,
      "chronic": 7481,
      "chanis": 7482,
      "chverhal": 7483,
      "uke": 7484,
      "ukọ": 7485,
      "ukuk": 7486,
      "ukom": 7487,
      "ukang": 7488,
      "ukiza": 7489,
      "ukura": 7490,
      "ukuze": 7491,
      "ukina": 7492,
      "ukwiye": 7493,
      "ukabona": 7494,
      "ukubita": 7495,
      "ukwakira": 7496,
      "ukiragihugu": 7497,
      "ukabura": 7498,
      "ukumenya": 7499,
      "ukutac": 7500,
      "signals": 7501,
      "ces": 7502,
      "celo": 7503,
      "cebul": 7504,
      "cecaf": 7505,
      "celta": 7506,
      "user": 7507,
      "usaba": 7508,
      "usual": 7509,
      "usanzwe": 7510,
      "ussa": 7511,
      "usanisha": 7512,
      "usuruts": 7513,
      "dien": 7514,
      "diwe": 7515,
      "dibly": 7516,
      "diagon": 7517,
      "diffic": 7518,
      "lywo": 7519,
      "omic": 7520,
      "ombe": 7521,
      "omate": 7522,
      "omenya": 7523,
      "omenyesh": 7524,
      "omereye": 7525,
      "omorere": 7526,
      "omoko": 7527,
      "termin": 7528,
      "wayi": 7529,
      "wahari": 7530,
      "waha": 7531,
      "wafa": 7532,
      "wavug": 7533,
      "waves": 7534,
      "wafashe": 7535,
      "wavuze": 7536,
      "wasoma": 7537,
      "1874": 7538,
      "agement": 7539,
      "noire": 7540,
      "nobo": 7541,
      "nothing": 7542,
      "nobi": 7543,
      "novel": 7544,
      "izav": 7545,
      "izih": 7546,
      "izabo": 7547,
      "izanya": 7548,
      "izimana": 7549,
      "izoba": 7550,
      "izok": 7551,
      "izadu": 7552,
      "izagira": 7553,
      "izagenda": 7554,
      "izakina": 7555,
      "izahindura": 7556,
      "izamanza": 7557,
      "izigamye": 7558,
      "erezo": 7559,
      "erezwa": 7560,
      "erekano": 7561,
      "poir": 7562,
      "poju": 7563,
      "potheses": 7564,
      "shav": 7565,
      "shaka": 7566,
      "shot": 7567,
      "shuza": 7568,
      "shasa": 7569,
      "shinku": 7570,
      "shitty": 7571,
      "ili": 7572,
      "ilar": 7573,
      "iled": 7574,
      "ilable": 7575,
      "ilog": 7576,
      "ilten": 7577,
      "iloso": 7578,
      "converse": 7579,
      "conclu": 7580,
      "conclude": 7581,
      "conduc": 7582,
      "contr": 7583,
      "confo": 7584,
      "concent": 7585,
      "contain": 7586,
      "convol": 7587,
      "concer": 7588,
      "conclusion": 7589,
      "contribut": 7590,
      "contextual": 7591,
      "congereza": 7592,
      "cononwa": 7593,
      "gey": 7594,
      "gear": 7595,
      "geye": 7596,
      "geze": 7597,
      "geza": 7598,
      "gepoint": 7599,
      "geben": 7600,
      "strial": 7601,
      "strong": 7602,
      "strateg": 7603,
      "stronger": 7604,
      "stratified": 7605,
      "strchr": 7606,
      "apa": 7607,
      "apr": 7608,
      "apima": 7609,
      "apimye": 7610,
      "ivya": 7611,
      "ivyag": 7612,
      "ivuze": 7613,
      "ivyat": 7614,
      "ivyar": 7615,
      "ivuza": 7616,
      "ivyah": 7617,
      "ivutu": 7618,
      "ivyavuye": 7619,
      "ivugire": 7620,
      "ivalent": 7621,
      "ivuge": 7622,
      "uli": 7623,
      "ulus": 7624,
      "ulite": 7625,
      "ulating": 7626,
      "god": 7627,
      "going": 7628,
      "gokuru": 7629,
      "gosiri": 7630,
      "(\"**": 7631,
      "(\"*\");\\": 7632,
      "tel": 7633,
      "tely": 7634,
      "teger": 7635,
      "telescopes": 7636,
      "ibo": 7637,
      "iby": 7638,
      "ibyo": 7639,
      "ibid": 7640,
      "ibera": 7641,
      "ibiri": 7642,
      "ibanga": 7643,
      "ibita": 7644,
      "ibonye": 7645,
      "ibibazo": 7646,
      "ibikorwa": 7647,
      "ibiryo": 7648,
      "ibuyo": 7649,
      "ibigo": 7650,
      "ibande": 7651,
      "ibarizwa": 7652,
      "ibihu": 7653,
      "ibihar": 7654,
      "ibitsindo": 7655,
      "ibyuma": 7656,
      "ibicishije": 7657,
      "ibirego": 7658,
      "ibravo": 7659,
      "ibambe": 7660,
      "ibacira": 7661,
      "ibuke": 7662,
      "ibizav": 7663,
      "eled": 7664,
      "eline": 7665,
      "elds": 7666,
      "priate": 7667,
      "prono": 7668,
      "ift": 7669,
      "ify": 7670,
      "ifuz": 7671,
      "iface": 7672,
      "ifuriza": 7673,
      "ifadikanije": 7674,
      "yozi": 7675,
      "yokw": 7676,
      "yobay": 7677,
      "yohava": 7678,
      "yobora": 7679,
      "yobizi": 7680,
      "yoshaka": 7681,
      "afọ": 7682,
      "affect": 7683,
      "affic": 7684,
      "afashe": 7685,
      "afuta": 7686,
      "afirika": 7687,
      "ahm": 7688,
      "ahind": 7689,
      "ahura": 7690,
      "ahinda": 7691,
      "ahaga": 7692,
      "ahanzwe": 7693,
      "ahamu": 7694,
      "ahizwe": 7695,
      "ahukana": 7696,
      "ahabwa": 7697,
      "ahinduka": 7698,
      "ahavugwa": 7699,
      "ahukanye": 7700,
      "ahizamu": 7701,
      "ahahira": 7702,
      "ahantu": 7703,
      "ahoriza": 7704,
      "ahirize": 7705,
      "ahamya": 7706,
      "ahwemye": 7707,
      "ahibambe": 7708,
      "iele": 7709,
      "probe": 7710,
      "proje": 7711,
      "proport": 7712,
      "process": 7713,
      "proper": 7714,
      "probab": 7715,
      "produce": 7716,
      "protect": 7717,
      "providers": 7718,
      "zema": 7719,
      "zeta": 7720,
      "zehar": 7721,
      "zemera": 7722,
      "zeigt": 7723,
      "Then": 7724,
      "Their": 7725,
      "These": 7726,
      "mazu": 7727,
      "mazuru": 7728,
      "macotherapy": 7729,
      "maintain": 7730,
      "mazehar": 7731,
      "ids": 7732,
      "iden": 7733,
      "idge": 7734,
      "idIn": 7735,
      "idence": 7736,
      "idimen": 7737,
      "idahizwe": 7738,
      "wita": 7739,
      "witabiri": 7740,
      "witeze": 7741,
      "witeg": 7742,
      "witabiriye": 7743,
      "printList": 7744,
      "ishi": 7745,
      "ishav": 7746,
      "ishika": 7747,
      "ishwi": 7748,
      "ishati": 7749,
      "ishingwa": 7750,
      "ishingiye": 7751,
      "obi": 7752,
      "obic": 7753,
      "obje": 7754,
      "obore": 7755,
      "obvious": 7756,
      "oberana": 7757,
      "obabwinshi": 7758,
      "obandabang": 7759,
      "ava": 7760,
      "avg": 7761,
      "avity": 7762,
      "avugana": 7763,
      "aviness": 7764,
      "avuzwe": 7765,
      "avugishije": 7766,
      "avugamo": 7767,
      "amezi": 7768,
      "amework": 7769,
      "zayi": 7770,
      "zajya": 7771,
      "butter": 7772,
      "butwar": 7773,
      "butaka": 7774,
      "butagira": 7775,
      "butangaje": 7776,
      "butegest": 7777,
      "tora": 7778,
      "tory": 7779,
      "irahera": 7780,
      "clip": 7781,
      "claud": 7782,
      "clos": 7783,
      "ayamu": 7784,
      "ayingwe": 7785,
      "ayikishije": 7786,
      "plus": 7787,
      "plain": 7788,
      "pliable": 7789,
      "ploy": 7790,
      "platnum": 7791,
      "plasma": 7792,
      "plagiar": 7793,
      "plomate": 7794,
      "ihang": 7795,
      "ihush": 7796,
      "ihariko": 7797,
      "ihambaye": 7798,
      "ihinduka": 7799,
      "ihuriza": 7800,
      "sowe": 7801,
      "sold": 7802,
      "sound": 7803,
      "sowie": 7804,
      "sourdo": 7805,
      "sosiye": 7806,
      "sogokuru": 7807,
      "without": 7808,
      "withstand": 7809,
      "berry": 7810,
      "bernab": 7811,
      "bernard": 7812,
      "Vice": 7813,
      "byi": 7814,
      "byaba": 7815,
      "byako": 7816,
      "byango": 7817,
      "byamar": 7818,
      "byagiye": 7819,
      "byaratin": 7820,
      "byasem": 7821,
      "byamugirira": 7822,
      "byakugirira": 7823,
      "indwa": 7824,
      "indira": 7825,
      "indimi": 7826,
      "indurwa": 7827,
      "indorerezi": 7828,
      "industr": 7829,
      "indamut": 7830,
      "prehen": 7831,
      "preval": 7832,
      "prepare": 7833,
      "preced": 7834,
      "prelim": 7835,
      "premier": 7836,
      "angere": 7837,
      "angiriye": 7838,
      "angamiwe": 7839,
      "angayikishije": 7840,
      "mean": 7841,
      "meat": 7842,
      "meal": 7843,
      "meye": 7844,
      "meza": 7845,
      "means": 7846,
      "meet": 7847,
      "metụ": 7848,
      "mechanis": 7849,
      "dern": 7850,
      "derwako": 7851,
      "deranire": 7852,
      "imeza": 7853,
      "imetero": 7854,
      "imezu": 7855,
      "sentences": 7856,
      "sentertain": 7857,
      "ssed": 7858,
      "oneke": 7859,
      "oneka": 7860,
      "\",*": 7861,
      "jewe": 7862,
      "jekte": 7863,
      "ares": 7864,
      "arebo": 7865,
      "arette": 7866,
      "abaje": 7867,
      "abaherekeje": 7868,
      "abajen": 7869,
      "nodes": 7870,
      "moham": 7871,
      "mouth": 7872,
      "moussa": 7873,
      "modern": 7874,
      "ateye": 7875,
      "atemewe": 7876,
      "yawe": 7877,
      "yaoumub": 7878,
      "ziwe": 7879,
      "ziya": 7880,
      "zija": 7881,
      "lot": 7882,
      "lose": 7883,
      "love": 7884,
      "local": 7885,
      "nduru": 7886,
      "ndishim": 7887,
      "ndako": 7888,
      "ndamuk": 7889,
      "ndouble": 7890,
      "ndyane": 7891,
      "ndamutse": 7892,
      "ndakeka": 7893,
      "ndacyay": 7894,
      "werekana": 7895,
      "therape": 7896,
      "clusive": 7897,
      "ores": 7898,
      "oreye": 7899,
      "oreza": 7900,
      "oreshe": 7901,
      "oresheje": 7902,
      "ctive": 7903,
      "cture": 7904,
      "ctangle": 7905,
      "tually": 7906,
      "tuvy": 7907,
      "tures": 7908,
      "tuvuga": 7909,
      "tuell": 7910,
      "tudat": 7911,
      "tuzag": 7912,
      "tuhahurira": 7913,
      "tupu": 7914,
      "tuvuye": 7915,
      "tuzam": 7916,
      "kwose": 7917,
      "kwabo": 7918,
      "kwanga": 7919,
      "kwiba": 7920,
      "kwambara": 7921,
      "kwumva": 7922,
      "kwijana": 7923,
      "kwibaza": 7924,
      "kwongera": 7925,
      "kwambura": 7926,
      "kwisigura": 7927,
      "kwigenga": 7928,
      "kwishyura": 7929,
      "kwards": 7930,
      "kwimika": 7931,
      "kwikingira": 7932,
      "kwugara": 7933,
      "kwaduka": 7934,
      "kwivuza": 7935,
      "philip": 7936,
      "philoso": 7937,
      "structures": 7938,
      "portugal": 7939,
      "includes": 7940,
      "duction": 7941,
      "waren": 7942,
      "warush": 7943,
      "wararik": 7944,
      "warashizwe": 7945,
      "ashye": 7946,
      "ashanya": 7947,
      "ashirwa": 7948,
      "ashimira": 7949,
      "ashikiriza": 7950,
      "ashingwa": 7951,
      "ashigikiye": 7952,
      "ashyizwe": 7953,
      "ashiraho": 7954,
      "ashimang": 7955,
      "uruje": 7956,
      "uruja": 7957,
      "lland": 7958,
      "henzer": 7959,
      "hengeza": 7960,
      "excess": 7961,
      "example": 7962,
      "extreme": 7963,
      "exoplanet": 7964,
      "exclusive": 7965,
      "pends": 7966,
      "headgear": 7967,
      "Through": 7968,
      "Thanks": 7969,
      "petit": 7970,
      "peace": 7971,
      "peppers": 7972,
      "peeled": 7973,
      "pective": 7974,
      "comple": 7975,
      "combin": 7976,
      "complain": 7977,
      "bura": 7978,
      "burden": 7979,
      "burimo": 7980,
      "burorero": 7981,
      "burwanya": 7982,
      "buraya": 7983,
      "canned": 7984,
      "canada": 7985,
      "down": 7986,
      "dolog": 7987,
      "dozwa": 7988,
      "htigen": 7989,
      "nyere": 7990,
      "nyirah": 7991,
      "nyacyo": 7992,
      "nyarwanda": 7993,
      "nyamuk": 7994,
      "nyigisho": 7995,
      "nyamirambo": 7996,
      "nyandwi": 7997,
      "nyishi": 7998,
      "wokwandika": 7999,
      "ushaka": 8000,
      "ushaho": 8001,
      "cross": 8002,
      "itsa": 8003,
      "Gotta": 8004,
      "track": 8005,
      "tries": 8006,
      "trade": 8007,
      "traver": 8008,
      "trsor": 8009,
      "truth": 8010,
      "trude": 8011,
      "trimmed": 8012,
      "trigger": 8013,
      "trilog": 8014,
      "traffic": 8015,
      "Both": 8016,
      "muco": 8017,
      "muzi": 8018,
      "mutoza": 8019,
      "muhanzi": 8020,
      "muhinga": 8021,
      "muvug": 8022,
      "muziki": 8023,
      "mudbug": 8024,
      "muwaka": 8025,
      "muyafise": 8026,
      "muhezo": 8027,
      "nazo": 8028,
      "naire": 8029,
      "nainggo": 8030,
      "naverage": 8031,
      "Inorder": 8032,
      "Intell": 8033,
      "Intro": 8034,
      "keza": 8035,
      "kezi": 8036,
      "itewe": 8037,
      "iteka": 8038,
      "itegeko": 8039,
      "itegamiye": 8040,
      "itecture": 8041,
      "thods": 8042,
      "izaabantu": 8043,
      "hann": 8044,
      "hano": 8045,
      "hanyuma": 8046,
      "hanashizwe": 8047,
      "ambanyi": 8048,
      "ambamyi": 8049,
      "ambiguous": 8050,
      "ferwafa": 8051,
      "guhag": 8052,
      "guide": 8053,
      "gutoza": 8054,
      "guiness": 8055,
      "guhera": 8056,
      "guanzo": 8057,
      "gustinda": 8058,
      "quantit": 8059,
      "quality": 8060,
      "introduce": 8061,
      "ched": 8062,
      "chez": 8063,
      "cheese": 8064,
      "matrix": 8065,
      "matched": 8066,
      "taa": 8067,
      "tailed": 8068,
      "ineating": 8069,
      "ineukaba": 8070,
      "inefficient": 8071,
      "notion": 8072,
      "mitted": 8073,
      "mitumba": 8074,
      "ario": 8075,
      "ariwe": 8076,
      "ariyo": 8077,
      "ulty": 8078,
      "mainly": 8079,
      "amaye": 8080,
      "amairiza": 8081,
      "urebye": 8082,
      "voa": 8083,
      "ataco": 8084,
      "urai": 8085,
      "akaje": 8086,
      "akajwe": 8087,
      "1922": 8088,
      "1963年": 8089,
      "genre": 8090,
      "geneous": 8091,
      "mental": 8092,
      "mentation": 8093,
      "nkina": 8094,
      "nkako": 8095,
      "nkanavuga": 8096,
      "aneous": 8097,
      "anegh": 8098,
      "considerations": 8099,
      "(\"%.": 8100,
      "tions": 8101,
      "tionen": 8102,
      "cyaba": 8103,
      "cyiza": 8104,
      "cyuz": 8105,
      "cyafashwe": 8106,
      "cyamaze": 8107,
      "cyatum": 8108,
      "cycle": 8109,
      "cyabone": 8110,
      "cyirezo": 8111,
      "cyarangiye": 8112,
      "cyavugishije": 8113,
      "ikawa": 8114,
      "ntare": 8115,
      "ntmp": 8116,
      "ntikir": 8117,
      "ntaho": 8118,
      "ntico": 8119,
      "ntubona": 8120,
      "nticaha": 8121,
      "ntacyo": 8122,
      "ntago": 8123,
      "ntumbero": 8124,
      "ntarim": 8125,
      "ntitwab": 8126,
      "ntamavuk": 8127,
      "nticama": 8128,
      "ntakizere": 8129,
      "ntangere": 8130,
      "ntambamyi": 8131,
      "zoviyo": 8132,
      "zotora": 8133,
      "==(": 8134,
      "hope": 8135,
      "hoho": 8136,
      "hokub": 8137,
      "mpora": 8138,
      "mpfumuk": 8139,
      "mperuka": 8140,
      "mptoms": 8141,
      "mpaghara": 8142,
      "suit": 8143,
      "suitable": 8144,
      "suzumwa": 8145,
      "sustain": 8146,
      "angels": 8147,
      "angezeigt": 8148,
      "istische": 8149,
      "imbog": 8150,
      "imbaza": 8151,
      "imbabazi": 8152,
      "imbwana": 8153,
      "espoir": 8154,
      "heric": 8155,
      "herutse": 8156,
      "hermion": 8157,
      "currenc": 8158,
      "Health": 8159,
      "Heaviness": 8160,
      "yonyene": 8161,
      "yongeye": 8162,
      "artseite": 8163,
      "titive": 8164,
      "wide": 8165,
      "wije": 8166,
      "wieder": 8167,
      "anyu": 8168,
      "anyị": 8169,
      "anyere": 8170,
      "anything": 8171,
      "anyijwe": 8172,
      "engata": 8173,
      "engero": 8174,
      "engumure": 8175,
      "Nothing": 8176,
      "iod": 8177,
      "ioecon": 8178,
      "antide": 8179,
      "antonio": 8180,
      "ckfrag": 8181,
      "circum": 8182,
      "disp": 8183,
      "disorder": 8184,
      "disks": 8185,
      "discre": 8186,
      "display": 8187,
      "disability": 8188,
      "disagree": 8189,
      "disproport": 8190,
      "emere": 8191,
      "embag": 8192,
      "embed": 8193,
      "employ": 8194,
      "somewhere": 8195,
      "piecewise": 8196,
      "++(": 8197,
      "++;\\": 8198,
      "++];": 8199,
      "Exercise": 8200,
      "Extreme": 8201,
      "iheze": 8202,
      "putchar": 8203,
      "abanza": 8204,
      "abaniye": 8205,
      "abanyeshure": 8206,
      "umaze": 8207,
      "ungere": 8208,
      "ungana": 8209,
      "ungera": 8210,
      "unganywa": 8211,
      "ungurizo": 8212,
      "ungikwa": 8213,
      "unguruje": 8214,
      "ikirana": 8215,
      "ikirizwa": 8216,
      "ikirarane": 8217,
      "generation": 8218,
      "bakọ": 8219,
      "bakora": 8220,
      "bakavuga": 8221,
      "bakij": 8222,
      "bakiriye": 8223,
      "bakomeye": 8224,
      "bakurik": 8225,
      "bakabab": 8226,
      "bakomeje": 8227,
      "bakibaza": 8228,
      "bakinnyi": 8229,
      "bakorana": 8230,
      "bakaron": 8231,
      "bakaguma": 8232,
      "bakoresha": 8233,
      "bakitwar": 8234,
      "bakoresheje": 8235,
      "gri": 8236,
      "grid": 8237,
      "gray": 8238,
      "grard": 8239,
      "gracef": 8240,
      "gravity": 8241,
      "vyari": 8242,
      "vyura": 8243,
      "vyabo": 8244,
      "vyavuye": 8245,
      "vyaciye": 8246,
      "vyiwe": 8247,
      "vyatung": 8248,
      "vyakira": 8249,
      "vyakoreshwa": 8250,
      "vyatumye": 8251,
      "vyatanguye": 8252,
      "vyerekana": 8253,
      "vyandikira": 8254,
      "vyiyongera": 8255,
      "vyavuzwe": 8256,
      "vyateye": 8257,
      "vyanyu": 8258,
      "offed": 8259,
      "unding": 8260,
      "undiro": 8261,
      "undond": 8262,
      "undikud": 8263,
      "uburongo": 8264,
      "uburorero": 8265,
      "uburenget": 8266,
      "uburwayi": 8267,
      "france": 8268,
      "framework": 8269,
      "kaco": 8270,
      "kaja": 8271,
      "kaumusiv": 8272,
      "kajandi": 8273,
      "kazoviyo": 8274,
      "kuwa": 8275,
      "kuyig": 8276,
      "kuvug": 8277,
      "kuduf": 8278,
      "kuyine": 8279,
      "kuhava": 8280,
      "kuyakur": 8281,
      "kudasubira": 8282,
      "kujamw": 8283,
      "kuvurwa": 8284,
      "kuyih": 8285,
      "kuyobora": 8286,
      "kuzotora": 8287,
      "kuvyura": 8288,
      "continue": 8289,
      "approxim": 8290,
      "appropriate": 8291,
      "uldn": 8292,
      "00π": 8293,
      "Changepoint": 8294,
      "Depression": 8295,
      "Detect": 8296,
      "Devils": 8297,
      "Deutsche": 8298,
      "Depends": 8299,
      "makungu": 8300,
      "makamba": 8301,
      "makipe": 8302,
      "makaritiye": 8303,
      "hexadecimal": 8304,
      "aseka": 8305,
      "asets": 8306,
      "umuyag": 8307,
      "umuhinga": 8308,
      "umufana": 8309,
      "umufaransa": 8310,
      "umuzabib": 8311,
      "umuyobizi": 8312,
      "query": 8313,
      "Georg": 8314,
      "horwa": 8315,
      "horrible": 8316,
      "otumwa": 8317,
      "сти": 8318,
      "стол": 8319,
      "стро": 8320,
      "стыни": 8321,
      "bawara": 8322,
      "bazarush": 8323,
      "flavor": 8324,
      "koluta": 8325,
      "kubw": 8326,
      "kubaz": 8327,
      "kubimen": 8328,
      "kubikora": 8329,
      "kubibuga": 8330,
      "kubabazwa": 8331,
      "kubitorag": 8332,
      "kubirukana": 8333,
      "kubagumiza": 8334,
      "kubakuze": 8335,
      "kubapima": 8336,
      "kubahoriza": 8337,
      "kubihuriza": 8338,
      "longer": 8339,
      "longest": 8340,
      "ops": 8341,
      "oped": 8342,
      "udutu": 8343,
      "uduti": 8344,
      "actionable": 8345,
      "apped": 8346,
      "iously": 8347,
      "cius": 8348,
      "ciaml": 8349,
      "yaga": 8350,
      "yagiye": 8351,
      "yagera": 8352,
      "yagura": 8353,
      "yagonze": 8354,
      "yagumanye": 8355,
      "insinzi": 8356,
      "insertion": 8357,
      "insurance": 8358,
      "hard": 8359,
      "harafashwe": 8360,
      "harangwa": 8361,
      "harungikwa": 8362,
      "history": 8363,
      "kugihugu": 8364,
      "kugenda": 8365,
      "kugaraga": 8366,
      "kugabanya": 8367,
      "kugorwa": 8368,
      "kugerageza": 8369,
      "kugondo": 8370,
      "kugenzura": 8371,
      "views": 8372,
      "therefore": 8373,
      "getch": 8374,
      "getchar": 8375,
      "getVal": 8376,
      "gettin": 8377,
      "getting": 8378,
      "getDis": 8379,
      "getRandom": 8380,
      "Question": 8381,
      "box": 8382,
      "both": 8383,
      "bool": 8384,
      "book": 8385,
      "bought": 8386,
      "boguma": 8387,
      "bracht": 8388,
      "bridge": 8389,
      "breath": 8390,
      "borema": 8391,
      "few": 8392,
      "feel": 8393,
      "feedback": 8394,
      "feilten": 8395,
      "gusaba": 8396,
      "gusenya": 8397,
      "gusabwa": 8398,
      "gusumba": 8399,
      "gusubira": 8400,
      "gusohora": 8401,
      "gusenyuka": 8402,
      "gushengeza": 8403,
      "ijejwe": 8404,
      "mwiza": 8405,
      "mwisunga": 8406,
      "mwanditsi": 8407,
      "mwomenya": 8408,
      "mwibuke": 8409,
      "perfect": 8410,
      "percent": 8411,
      "permitted": 8412,
      "period": 8413,
      "нии": 8414,
      "ним": 8415,
      "нитель": 8416,
      "replaced": 8417,
      "sional": 8418,
      "points": 8419,
      "pointer": 8420,
      "pointers": 8421,
      "dsir": 8422,
      "gukaraba": 8423,
      "gukeka": 8424,
      "gukubita": 8425,
      "gukuraho": 8426,
      "gukoreshe": 8427,
      "having": 8428,
      "havior": 8429,
      "рафий": 8430,
      "inuzand": 8431,
      "atiamafaranga": 8432,
      "appears": 8433,
      "Cow": 8434,
      "Counseling": 8435,
      "Comparis": 8436,
      "Comprehen": 8437,
      "murwi": 8438,
      "murima": 8439,
      "muribi": 8440,
      "muryango": 8441,
      "murugo": 8442,
      "muratub": 8443,
      "muribo": 8444,
      "sinzwe": 8445,
      "sindiwe": 8446,
      "sinshav": 8447,
      "sum1": 8448,
      "sum2": 8449,
      "summar": 8450,
      "tware": 8451,
      "twaba": 8452,
      "twirinda": 8453,
      "twabab": 8454,
      "twabas": 8455,
      "twibaza": 8456,
      "twibone": 8457,
      "twenza": 8458,
      "twamuba": 8459,
      "twagiranye": 8460,
      "twakagom": 8461,
      "twibande": 8462,
      "twifuz": 8463,
      "xtv": 8464,
      "endations": 8465,
      "endorph": 8466,
      "uneven": 8467,
      "methodolog": 8468,
      "Ende": 8469,
      "Networ": 8470,
      "Neural": 8471,
      "bagura": 8472,
      "bagize": 8473,
      "bagaca": 8474,
      "bagwanyi": 8475,
      "bagwaye": 8476,
      "bagakoresheje": 8477,
      "bagarure": 8478,
      "bagishika": 8479,
      "bagashiraho": 8480,
      "mbọ": 8481,
      "mble": 8482,
      "mbona": 8483,
      "mbabazi": 8484,
      "mbitware": 8485,
      "ryiza": 8486,
      "ryatanguye": 8487,
      "ryitaho": 8488,
      "ryashatse": 8489,
      "ryakoresheje": 8490,
      "ryifadikanije": 8491,
      "ryafashe": 8492,
      "ryashyizwe": 8493,
      "sheko": 8494,
      "shejwe": 8495,
      "subirayo": 8496,
      "yiwe": 8497,
      "yiyam": 8498,
      "yiyong": 8499,
      "yiyamamaza": 8500,
      "anschlie": 8501,
      "arsne": 8502,
      "review": 8503,
      "roots": 8504,
      "**)": 8505,
      "**));\\": 8506,
      "***));\\": 8507,
      "***\\": 8508,
      "buy": 8509,
      "buvuga": 8510,
      "buyobozi": 8511,
      "buham": 8512,
      "bujejwe": 8513,
      "bufitiye": 8514,
      "bujum": 8515,
      "butomo": 8516,
      "bato": 8517,
      "batara": 8518,
      "batuye": 8519,
      "batanu": 8520,
      "bataraba": 8521,
      "batumva": 8522,
      "batangaje": 8523,
      "bataron": 8524,
      "baturage": 8525,
      "baterura": 8526,
      "baturuka": 8527,
      "batiteze": 8528,
      "batangaza": 8529,
      "batakoze": 8530,
      "batishyura": 8531,
      "batwambaye": 8532,
      "bataratanga": 8533,
      "batizanya": 8534,
      "batahwemye": 8535,
      "batsindiwe": 8536,
      "kurabo": 8537,
      "kuriyo": 8538,
      "kurong": 8539,
      "kuryash": 8540,
      "kurwanya": 8541,
      "kurangwa": 8542,
      "kurfür": 8543,
      "kuramuk": 8544,
      "kurusha": 8545,
      "kurondera": 8546,
      "kurushaho": 8547,
      "muki": 8548,
      "mukwir": 8549,
      "mukinyi": 8550,
      "mukandid": 8551,
      "mukesh": 8552,
      "mukwinj": 8553,
      "mukumenyesha": 8554,
      "mukiganiro": 8555,
      "multidimen": 8556,
      "rwabakinyi": 8557,
      "rwabac": 8558,
      "vey": 8559,
      "yamara": 8560,
      "yamurenge": 8561,
      "ubuham": 8562,
      "ubufaransa": 8563,
      "ubuola": 8564,
      "407": 8565,
      "Alle": 8566,
      "Also": 8567,
      "Alche": 8568,
      "Alloc": 8569,
      "Prince": 8570,
      "Prisoner": 8571,
      "eficial": 8572,
      "lens": 8573,
      "minsi": 8574,
      "minwe": 8575,
      "minants": 8576,
      "ministiri": 8577,
      "minimising": 8578,
      "minGW": 8579,
      "ministr": 8580,
      "minutes": 8581,
      "ukazana": 8582,
      "ukawandika": 8583,
      "breaks": 8584,
      "League": 8585,
      "Lecun": 8586,
      "Leiden": 8587,
      "Roll": 8588,
      "Rough": 8589,
      "Rowling": 8590,
      "Rochas": 8591,
      "ijima": 8592,
      "ijosi": 8593,
      "ijiria": 8594,
      "atinibyo": 8595,
      "umunyarwanda": 8596,
      "umugwi": 8597,
      "umugati": 8598,
      "umugurira": 8599,
      "umugozi": 8600,
      "umugambanyi": 8601,
      "intermediate": 8602,
      "intervention": 8603,
      "internet": 8604,
      "interfaces": 8605,
      "interviews": 8606,
      "conservative": 8607,
      "ικαν": 8608,
      "ικοί": 8609,
      "stdbool": 8610,
      "umukono": 8611,
      "umukinnyi": 8612,
      "umukiris": 8613,
      "umukeba": 8614,
      "pressure": 8615,
      "pressant": 8616,
      "consists": 8617,
      "consistently": 8618,
      "cabereye": 8619,
      "gutek": 8620,
      "gutonda": 8621,
      "gutahukana": 8622,
      "gutengata": 8623,
      "gutembag": 8624,
      "outbreak": 8625,
      "outperforms": 8626,
      "outlier": 8627,
      "parts": 8628,
      "original": 8629,
      "enewe": 8630,
      "enyemaka": 8631,
      "enyekaniye": 8632,
      "enyesheko": 8633,
      "alisation": 8634,
      "allow": 8635,
      "umwumwe": 8636,
      "umwihariko": 8637,
      "umwungere": 8638,
      "entering": 8639,
      "ahoham": 8640,
      "ndayisab": 8641,
      "inetly": 8642,
      "maket": 8643,
      "successful": 8644,
      "biti": 8645,
      "bitte": 8646,
      "bitari": 8647,
      "bitten": 8648,
      "bitandatu": 8649,
      "bitorag": 8650,
      "bitumen": 8651,
      "bituniye": 8652,
      "basa": 8653,
      "baseline": 8654,
      "fread": 8655,
      "freuen": 8656,
      "hagiye": 8657,
      "hagwaye": 8658,
      "medication": 8659,
      "meddie": 8660,
      "τηκε": 8661,
      "ной": 8662,
      "ном": 8663,
      "нолет": 8664,
      "ность": 8665,
      "носитель": 8666,
      "ности": 8667,
      "ону": 8668,
      "оны": 8669,
      "inition": 8670,
      "achị": 8671,
      "achụkw": 8672,
      "achniko": 8673,
      "afrima": 8674,
      "afrique": 8675,
      "resulting": 8676,
      "bark": 8677,
      "baravuga": 8678,
      "baririmb": 8679,
      "barimo": 8680,
      "barongo": 8681,
      "barafashwe": 8682,
      "barabona": 8683,
      "baraso": 8684,
      "barakir": 8685,
      "baragerageje": 8686,
      "bararya": 8687,
      "barandagiye": 8688,
      "barakwa": 8689,
      "barahura": 8690,
      "birinde": 8691,
      "birenga": 8692,
      "biratanga": 8693,
      "birashe": 8694,
      "birori": 8695,
      "biruta": 8696,
      "birashika": 8697,
      "biragaragara": 8698,
      "birabone": 8699,
      "birabure": 8700,
      "biracyakomeje": 8701,
      "birashimang": 8702,
      "caused": 8703,
      "gushakisha": 8704,
      "odd": 8705,
      "odds": 8706,
      "published": 8707,
      "spare": 8708,
      "spaces": 8709,
      "spalet": 8710,
      "spices": 8711,
      "spaced": 8712,
      "salah": 8713,
      "tsinda": 8714,
      "tsverord": 8715,
      "treating": 8716,
      "ινε": 8717,
      "ινού": 8718,
      "ινής": 8719,
      "independence": 8720,
      "independent": 8721,
      "inputs": 8722,
      "isii": 8723,
      "agaye": 8724,
      "agaza": 8725,
      "temperature": 8726,
      "guha": 8727,
      "guhora": 8728,
      "guhuv": 8729,
      "guhabwa": 8730,
      "guhangana": 8731,
      "guhahira": 8732,
      "guhatanira": 8733,
      "guhoberana": 8734,
      "guhimbaza": 8735,
      "stack_print": 8736,
      "stack_count": 8737,
      "stack_append": 8738,
      "stack_drop": 8739,
      "stack_clear": 8740,
      "stack_elem": 8741,
      ");/*": 8742,
      "109": 8743,
      "bwana": 8744,
      "bwiza": 8745,
      "bwenge": 8746,
      "bwatakaye": 8747,
      "bwisanz": 8748,
      "benutz": 8749,
      "benchmark": 8750,
      "benzema": 8751,
      "beneficial": 8752,
      "duhura": 8753,
      "higher": 8754,
      "highest": 8755,
      "hariumunyeshure": 8756,
      "icokiza": 8757,
      "kiringo": 8758,
      "kirafise": 8759,
      "kiravugwa": 8760,
      "kirarenga": 8761,
      "kiramwan": 8762,
      "kirakenye": 8763,
      "mugihe": 8764,
      "muggles": 8765,
      "mugabane": 8766,
      "mugahinda": 8767,
      "mugobore": 8768,
      "mberamih": 8769,
      "oli": 8770,
      "yatuma": 8771,
      "yatangiye": 8772,
      "yatsind": 8773,
      "yatanguye": 8774,
      "yatsinda": 8775,
      "yatangura": 8776,
      "yaterereye": 8777,
      "yatahukanye": 8778,
      "demort": 8779,
      "amakaba": 8780,
      "amakenga": 8781,
      "intuitive": 8782,
      "<<\"": 8783,
      "Weasle": 8784,
      "bably": 8785,
      "babuze": 8786,
      "babyishim": 8787,
      "babandanya": 8788,
      "babatab": 8789,
      "babafata": 8790,
      "babikoze": 8791,
      "babihera": 8792,
      "babonanko": 8793,
      "babasaba": 8794,
      "babikuye": 8795,
      "epbu": 8796,
      "established": 8797,
      "munsi": 8798,
      "munwa": 8799,
      "munyarwanda": 8800,
      "muntoke": 8801,
      "munsaba": 8802,
      "vais": 8803,
      "yavutse": 8804,
      "yavuzwe": 8805,
      "yavugishije": 8806,
      "ροβάθμιας": 8807,
      "ροθάλ": 8808,
      "овек": 8809,
      "овёл": 8810,
      "табах": 8811,
      "тацион": 8812,
      "abaguma": 8813,
      "abagiriza": 8814,
      "abagwanya": 8815,
      "abagisoma": 8816,
      "abagirizwa": 8817,
      "umurya": 8818,
      "umurenge": 8819,
      "umuriyon": 8820,
      "umuryango": 8821,
      "umurusha": 8822,
      "umuririm": 8823,
      "umurizaabantu": 8824,
      "imiyimana": 8825,
      "ikoraniye": 8826,
      "ivyotuma": 8827,
      "characterization": 8828,
      "characterized": 8829,
      "lower": 8830,
      "20分": 8831,
      "2019": 8832,
      "2015": 8833,
      "2021": 8834,
      "bukaba": 8835,
      "bukungu": 8836,
      "bukinany": 8837,
      "crepe": 8838,
      "creators": 8839,
      "fini": 8840,
      "finish": 8841,
      "mended": 8842,
      "menshi": 8843,
      "menshinku": 8844,
      "madụ": 8845,
      "madame": 8846,
      "niwe": 8847,
      "niyo": 8848,
      "niwo": 8849,
      "nique": 8850,
      "nabuze": 8851,
      "nabonye": 8852,
      "nabahahira": 8853,
      "nababaherekeje": 8854,
      "service": 8855,
      "serukiragihugu": 8856,
      "κανο": 8857,
      "καθο": 8858,
      "κατά": 8859,
      "καινού": 8860,
      "μερώ": 8861,
      "μονικ": 8862,
      "στε": 8863,
      "στις": 8864,
      "στήρι": 8865,
      "арда": 8866,
      "олет": 8867,
      "олько": 8868,
      "definetly": 8869,
      "definition": 8870,
      "learns": 8871,
      "unguye": 8872,
      "unguzayi": 8873,
      "iceger": 8874,
      "akowa": 8875,
      "adding": 8876,
      "address": 8877,
      "igihembo": 8878,
      "verything": 8879,
      "logarithm": 8880,
      "extent": 8881,
      "extend": 8882,
      "extending": 8883,
      "publicum": 8884,
      "publicly": 8885,
      "publication": 8886,
      "fukamye": 8887,
      "1651": 8888,
      "centure": 8889,
      "central": 8890,
      "evil": 8891,
      "gahenzer": 8892,
      "germain": 8893,
      "gerard": 8894,
      "gererezo": 8895,
      "gertrude": 8896,
      "gisa": 8897,
      "gisata": 8898,
      "gisigura": 8899,
      "giswah": 8900,
      "speed": 8901,
      "upon": 8902,
      "upcoming": 8903,
      "works": 8904,
      "yaryo": 8905,
      "yararo": 8906,
      "yarangiye": 8907,
      "yarabon": 8908,
      "yaritanduk": 8909,
      "yarabashije": 8910,
      "yaruguru": 8911,
      "yarigaraga": 8912,
      "yabera": 8913,
      "yabura": 8914,
      "yababu": 8915,
      "yabamwo": 8916,
      "yabwand": 8917,
      "yabivuze": 8918,
      "αξιο": 8919,
      "arota": 8920,
      "divide": 8921,
      "graphs": 8922,
      "graphy": 8923,
      "graphical": 8924,
      "--(": 8925,
      "--;\\": 8926,
      "--){\\": 8927,
      "House": 8928,
      "Howard": 8929,
      "Holland": 8930,
      "falls": 8931,
      "fallen": 8932,
      "gataro": 8933,
      "gatanu": 8934,
      "gatolika": 8935,
      "liberat": 8936,
      "paruwas": 8937,
      "sugira": 8938,
      "uvuye": 8939,
      "uvugwa": 8940,
      "uvurwa": 8941,
      "uvugana": 8942,
      "vyohava": 8943,
      "vyopfuma": 8944,
      "yishima": 8945,
      "yishimanye": 8946,
      "τείν": 8947,
      "τεινε": 8948,
      "τεροβάθμιας": 8949,
      "лийский": 8950,
      "отных": 8951,
      "отор": 8952,
      "относитель": 8953,
      "inyungu": 8954,
      "inyuz": 8955,
      "anzazamar": 8956,
      "itazemera": 8957,
      "itazajya": 8958,
      "abarangiza": 8959,
      "abakiri": 8960,
      "abakwir": 8961,
      "abakurik": 8962,
      "abakunzi": 8963,
      "abakwita": 8964,
      "ikomone": 8965,
      "ignores": 8966,
      "afrikaau": 8967,
      "Itali": 8968,
      "ekweghị": 8969,
      "elekere": 8970,
      "hazator": 8971,
      "iwukom": 8972,
      "iwulite": 8973,
      "literature": 8974,
      "little": 8975,
      "literally": 8976,
      "manama": 8977,
      "manud": 8978,
      "managed": 8979,
      "manner": 8980,
      "okamwo": 8981,
      "okomorere": 8982,
      "patiri": 8983,
      "uwato": 8984,
      "uwamwit": 8985,
      "uwimanimp": 8986,
      "uwutwara": 8987,
      "uwakabuze": 8988,
      "uwundikud": 8989,
      "uzwi": 8990,
      "wird": 8991,
      "wiriza": 8992,
      "yakuze": 8993,
      "yakunda": 8994,
      "yakorwag": 8995,
      "ιακό": 8996,
      "одним": 8997,
      "однолет": 8998,
      "inkomoko": 8999,
      "delineating": 9000,
      "college": 9001,
      "abandiaho": 9002,
      "umuti": 9003,
      "umutima": 9004,
      "umutumire": 9005,
      "umuterekano": 9006,
      "acted": 9007,
      "strings": 9008,
      "producer": 9009,
      "producing": 9010,
      "commonly": 9011,
      "generalise": 9012,
      "suggestions": 9013,
      "('\\": 9014,
      "Furthermore": 9015,
      "LEBEN": 9016,
      "bien": 9017,
      "bias": 9018,
      "biyig": 9019,
      "biases": 9020,
      "bamwa": 9021,
      "bamenyereza": 9022,
      "criteria": 9023,
      "dubbed": 9024,
      "etwa": 9025,
      "etats": 9026,
      "kigo": 9027,
      "kigiye": 9028,
      "kigashika": 9029,
      "kigatangwa": 9030,
      "myiza": 9031,
      "myimuhaburarw": 9032,
      "ruguru": 9033,
      "rugero": 9034,
      "rays": 9035,
      "sporting": 9036,
      "sportsentertain": 9037,
      "twovuga": 9038,
      "watera": 9039,
      "ανοί": 9040,
      "προκή": 9041,
      "προτείν": 9042,
      "σεις": 9043,
      "нанно": 9044,
      "напри": 9045,
      "наибол": 9046,
      "обенно": 9047,
      "обритания": 9048,
      "oroshe": 9049,
      "orosis": 9050,
      "orohera": 9051,
      "orocha": 9052,
      "remnants": 9053,
      "student": 9054,
      "intego": 9055,
      "intete": 9056,
      "inteko": 9057,
      "ubwambere": 9058,
      "ubwigenga": 9059,
      "ubwigenge": 9060,
      "ubwobabwinshi": 9061,
      "ubutumwe": 9062,
      "ubutegetsi": 9063,
      "ubutumire": 9064,
      "ubutitsa": 9065,
      "igiti": 9066,
      "igitabu": 9067,
      "igitozwa": 9068,
      "igiturire": 9069,
      "playType": 9070,
      "area_com": 9071,
      "docteur": 9072,
      "transit": 9073,
      "transport": 9074,
      "transfer": 9075,
      "transferred": 9076,
      "transformation": 9077,
      "amajyaruguru": 9078,
      "растущ": 9079,
      "tworangiza": 9080,
      "decimal_hex": 9081,
      "individuals": 9082,
      "enyeshako": 9083,
      "andukanyeuno": 9084,
      "specify": 9085,
      "ENTERE": 9086,
      "physics": 9087,
      "LUVOIR": 9088,
      "State": 9089,
      "Stack": 9090,
      "Standpun": 9091,
      "Stadtgebiete": 9092,
      "Startseite": 9093,
      "bacuruzi": 9094,
      "bacarac": 9095,
      "backwards": 9096,
      "bahanzi": 9097,
      "bahasig": 9098,
      "bahuriye": 9099,
      "bahashye": 9100,
      "capa": 9101,
      "capability": 9102,
      "capabilities": 9103,
      "fatanwe": 9104,
      "grey": 9105,
      "green": 9106,
      "habe": 9107,
      "habits": 9108,
      "habitable": 9109,
      "kamurinda": 9110,
      "kamarebo": 9111,
      "kaminuzand": 9112,
      "ngwara": 9113,
      "ngirango": 9114,
      "ngafata": 9115,
      "ngahamu": 9116,
      "nsoban": 9117,
      "nsamirizi": 9118,
      "nsabimana": 9119,
      "nsengumure": 9120,
      "nsanzazamar": 9121,
      "papa": 9122,
      "wanter": 9123,
      "wanna": 9124,
      "yashize": 9125,
      "yashidikanywaho": 9126,
      "yashimangiye": 9127,
      "yashikanye": 9128,
      "τοβάθμιας": 9129,
      "виров": 9130,
      "вища": 9131,
      "миру": 9132,
      "ますので": 9133,
      "relies": 9134,
      "relax": 9135,
      "reluct": 9136,
      "counts": 9137,
      "amatungo": 9138,
      "utsemwo": 9139,
      "chili": 9140,
      "didnt": 9141,
      "presence": 9142,
      "memcpy": 9143,
      "ateganijwe": 9144,
      "ategamiye": 9145,
      "ategerezwa": 9146,
      "explore": 9147,
      "explanations": 9148,
      "Internet": 9149,
      "amazina": 9150,
      "amazamu": 9151,
      "amazinga": 9152,
      "amazimeza": 9153,
      "gukoraivyotuma": 9154,
      "yavuzeko": 9155,
      "commands": 9156,
      "analyse": 9157,
      "analytical": 9158,
      "analyzed": 9159,
      "Read": 9160,
      "Research": 9161,
      "Retrie": 9162,
      "Recht": 9163,
      "Rectangle": 9164,
      "]='\\": 9165,
      "azụ": 9166,
      "azaca": 9167,
      "adeciaml": 9168,
      "bishira": 9169,
      "bishya": 9170,
      "bishika": 9171,
      "bishobora": 9172,
      "bishitse": 9173,
      "bishirwa": 9174,
      "bishyikira": 9175,
      "bashaka": 9176,
      "bashika": 9177,
      "bashobora": 9178,
      "bashigikiye": 9179,
      "bashikirizwa": 9180,
      "fiction": 9181,
      "finden": 9182,
      "findings": 9183,
      "hydro": 9184,
      "hypotheses": 9185,
      "ierenden": 9186,
      "kiwe": 9187,
      "karim": 9188,
      "karate": 9189,
      "kariri": 9190,
      "kids": 9191,
      "kerautwan": 9192,
      "mgbakọ": 9193,
      "mgbasa": 9194,
      "mutarama": 9195,
      "muturage": 9196,
      "mutijima": 9197,
      "ogbug": 9198,
      "perspective": 9199,
      "radial": 9200,
      "radja": 9201,
      "variable": 9202,
      "variance": 9203,
      "various": 9204,
      "variants": 9205,
      "wrong": 9206,
      "wrapped": 9207,
      "yerekeje": 9208,
      "yerekano": 9209,
      "ершив": 9210,
      "земли": 9211,
      "земных": 9212,
      "земном": 9213,
      "когда": 9214,
      "hereza": 9215,
      "architecture": 9216,
      "atangaza": 9217,
      "costs": 9218,
      "iriko": 9219,
      "started": 9220,
      "amahoro": 9221,
      "amahinduka": 9222,
      "amahiganwa": 9223,
      "abafan": 9224,
      "abafatany": 9225,
      "impamo": 9226,
      "impair": 9227,
      "yemeye": 9228,
      "yemeje": 9229,
      "akoresha": 9230,
      "actors": 9231,
      "wapi": 9232,
      "politiki": 9233,
      "politics": 9234,
      "condition": 9235,
      "conditions": 9236,
      "modal": 9237,
      "modular": 9238,
      "modric": 9239,
      "endajuru": 9240,
      "worked": 9241,
      "elements": 9242,
      "algorithms": 9243,
      "ERROR": 9244,
      "ERLEBEN": 9245,
      "balance": 9246,
      "balanced": 9247,
      "bigana": 9248,
      "bigari": 9249,
      "bigirimana": 9250,
      "bigabije": 9251,
      "bizima": 9252,
      "bizoba": 9253,
      "bizakoreshwa": 9254,
      "bizokw": 9255,
      "bizomenyesh": 9256,
      "bizotumwa": 9257,
      "hịara": 9258,
      "humans": 9259,
      "listened": 9260,
      "naguterura": 9261,
      "nagukubita": 9262,
      "ological": 9263,
      "russie": 9264,
      "samurar": 9265,
      "sammich": 9266,
      "samuragwa": 9267,
      "samurai": 9268,
      "sadiki": 9269,
      "swapped": 9270,
      "vyaje": 9271,
      "yigenga": 9272,
      "yigeze": 9273,
      "zirenga": 9274,
      "zirimo": 9275,
      "zirases": 9276,
      "zirafat": 9277,
      "ziribone": 9278,
      "zirongoye": 9279,
      "zones": 9280,
      "ειδικ": 9281,
      "ούν": 9282,
      "ούμε": 9283,
      "ρισμένη": 9284,
      "ριφερε": 9285,
      "τους": 9286,
      "τουργή": 9287,
      "веге": 9288,
      "извест": 9289,
      "изнанно": 9290,
      "каудек": 9291,
      "качест": 9292,
      "нез": 9293,
      "ней": 9294,
      "неск": 9295,
      "невища": 9296,
      "типы": 9297,
      "тивиров": 9298,
      "撮影神社": 9299,
      "撮影時間": 9300,
      "aramura": 9301,
      "aramuye": 9302,
      "aramutse": 9303,
      "aramutiza": 9304,
      "realize": 9305,
      "realmadrid": 9306,
      "urikije": 9307,
      "irahumurizaabantu": 9308,
      "simba": 9309,
      "simono": 9310,
      "similar": 9311,
      "amaritiro": 9312,
      "amarindira": 9313,
      "amaso": 9314,
      "amasaka": 9315,
      "implements": 9316,
      "implementation": 9317,
      "unaihamagarira": 9318,
      "weseatonda": 9319,
      "icyirezo": 9320,
      "ikiniye": 9321,
      "ikinyarwanda": 9322,
      "ikinyamurenge": 9323,
      "ibiyaga": 9324,
      "prinzen": 9325,
      "ifatwa": 9326,
      "proving": 9327,
      "obodo": 9328,
      "ctronic": 9329,
      "retaibicishije": 9330,
      "buryohe": 9331,
      "voldemort": 9332,
      "irijeho": 9333,
      "optimising": 9334,
      "createList": 9335,
      "playerRoll": 9336,
      "Krumdom": 9337,
      "Krumological": 9338,
      "importantly": 9339,
      "122": 9340,
      "Celcius": 9341,
      "Logo": 9342,
      "Local": 9343,
      "Naijiria": 9344,
      "Proctor": 9345,
      "Projekte": 9346,
      "Probably": 9347,
      "bisigura": 9348,
      "bugali": 9349,
      "bugaragara": 9350,
      "bugahinduka": 9351,
      "correct": 9352,
      "drive": 9353,
      "driving": 9354,
      "drift": 9355,
      "gbara": 9356,
      "gbanu": 9357,
      "große": 9358,
      "gicurasi": 9359,
      "gikomeye": 9360,
      "gikwiye": 9361,
      "gikundiro": 9362,
      "kumara": 9363,
      "kumenya": 9364,
      "kumumenyereza": 9365,
      "kumbure": 9366,
      "kumasaha": 9367,
      "kwesi": 9368,
      "kwemer": 9369,
      "kutamenya": 9370,
      "kutikora": 9371,
      "kutumviriza": 9372,
      "kutaja": 9373,
      "kutakambara": 9374,
      "kwitura": 9375,
      "kwiterambere": 9376,
      "kwitabira": 9377,
      "kwitoreza": 9378,
      "kwitwararik": 9379,
      "magana": 9380,
      "magingo": 9381,
      "magenekerezo": 9382,
      "nibo": 9383,
      "nibwo": 9384,
      "nibwira": 9385,
      "nibwinshi": 9386,
      "nibakwira": 9387,
      "passes": 9388,
      "rigira": 9389,
      "rigarutse": 9390,
      "rigahindura": 9391,
      "sys": 9392,
      "symbo": 9393,
      "symptoms": 9394,
      "tenberg": 9395,
      "taking": 9396,
      "takes": 9397,
      "taktform": 9398,
      "wabereye": 9399,
      "wabicishije": 9400,
      "wabahu": 9401,
      "wabikoze": 9402,
      "wagonze": 9403,
      "wagizwe": 9404,
      "wagirango": 9405,
      "waganiriye": 9406,
      "yasoho": 9407,
      "yasabwaga": 9408,
      "yasusuruts": 9409,
      "yasutsemwo": 9410,
      "zonギフ": 9411,
      "zida": 9412,
      "zidasanzwe": 9413,
      "μέσο": 9414,
      "νατή": 9415,
      "παίδ": 9416,
      "σιεύ": 9417,
      "τις": 9418,
      "гие": 9419,
      "дах": 9420,
      "итанский": 9421,
      "лесов": 9422,
      "мая": 9423,
      "масш": 9424,
      "машних": 9425,
      "мании": 9426,
      "провёл": 9427,
      "признанно": 9428,
      "сконча": 9429,
      "том": 9430,
      "тоже": 9431,
      "томании": 9432,
      "ются": 9433,
      "ющег": 9434,
      "００円の技": 9435,
      "inkokora": 9436,
      "healthy": 9437,
      "anzue": 9438,
      "enyereyekuvuga": 9439,
      "reasons": 9440,
      "reasoning": 9441,
      "reasonable": 9442,
      "irusha": 9443,
      "irushya": 9444,
      "irushanwa": 9445,
      "ababuranira": 9446,
      "ababangamiwe": 9447,
      "umubare": 9448,
      "umubano": 9449,
      "umubikira": 9450,
      "umubox": 9451,
      "agiyegukora": 9452,
      "leads": 9453,
      "leadershi": 9454,
      "akarere": 9455,
      "akarwi": 9456,
      "akaminuza": 9457,
      "akamusanisha": 9458,
      "conversion": 9459,
      "converted": 9460,
      "technique": 9461,
      "ibisasu": 9462,
      "programs": 9463,
      "major": 9464,
      "majambo": 9465,
      "maybe": 9466,
      "mayoral": 9467,
      "ishyirwa": 9468,
      "ishyirahamwe": 9469,
      "observed": 9470,
      "anguwe": 9471,
      "angleterre": 9472,
      "supermar": 9473,
      "supermaket": 9474,
      "emergency": 9475,
      "kuzoba": 9476,
      "perturbations": 9477,
      "freeList": 9478,
      "ubwobaahubwo": 9479,
      "persons": 9480,
      "personal": 9481,
      "personally": 9482,
      "humanly": 9483,
      "humanistische": 9484,
      "Adults": 9485,
      "Adress": 9486,
      "Addition": 9487,
      "Administr": 9488,
      "Begeister": 9489,
      "Befrag": 9490,
      "Besides": 9491,
      "Behavior": 9492,
      "CAD": 9493,
      "CAM": 9494,
      "Digits": 9495,
      "Hexadeciaml": 9496,
      "Key": 9497,
      "Team": 9498,
      "Temp": 9499,
      "Telescopes": 9500,
      "Technic": 9501,
      "ahezecpc": 9502,
      "bibereye": 9503,
      "bibanyi": 9504,
      "bibandanya": 9505,
      "biboneka": 9506,
      "bayitang": 9507,
      "bayitora": 9508,
      "bayarorera": 9509,
      "biriya": 9510,
      "bihendako": 9511,
      "dutsind": 9512,
      "duteye": 9513,
      "dutahirize": 9514,
      "dutakaje": 9515,
      "dukumire": 9516,
      "dukoresha": 9517,
      "dukesha": 9518,
      "dukurikije": 9519,
      "digital": 9520,
      "equals": 9521,
      "equivalent": 9522,
      "fair": 9523,
      "freddi": 9524,
      "gito": 9525,
      "gitoli": 9526,
      "iii": 9527,
      "ibeshuza": 9528,
      "katọrọ": 9529,
      "kukirinda": 9530,
      "mvuto": 9531,
      "merpage": 9532,
      "marie": 9533,
      "marcelo": 9534,
      "misunderstand": 9535,
      "mirimo": 9536,
      "miryango": 9537,
      "muscle": 9538,
      "mashyamba": 9539,
      "nzira": 9540,
      "nzero": 9541,
      "nzukọ": 9542,
      "nzobandabang": 9543,
      "natị": 9544,
      "natwe": 9545,
      "ndihokub": 9546,
      "nshya": 9547,
      "nshavuye": 9548,
      "nshingiro": 9549,
      "nshingamate": 9550,
      "ntebe": 9551,
      "ntezwan": 9552,
      "ntegey": 9553,
      "ntekerautwan": 9554,
      "ntawu": 9555,
      "ntawak": 9556,
      "ntawokwandika": 9557,
      "osteop": 9558,
      "quest": 9559,
      "question": 9560,
      "rutahizamu": 9561,
      "rutandukanyeuno": 9562,
      "said": 9563,
      "saoul": 9564,
      "suraya": 9565,
      "survey": 9566,
      "task": 9567,
      "taste": 9568,
      "tasks": 9569,
      "tubabazwa": 9570,
      "tubivuge": 9571,
      "virtually": 9572,
      "vuge": 9573,
      "winds": 9574,
      "windows": 9575,
      "wanted": 9576,
      "yafataga": 9577,
      "yafunguye": 9578,
      "zitangwa": 9579,
      "zitunganywa": 9580,
[...]
